VALID
▁me
▁Nov
▁Российской
▁GET
▁Portály
▁teles
ric
▁permett
Abstract
tring
Par
▁distinct
▁Ali
▁etwas
▁все
▁син
bounded
▁consulté
une
▁образова
ress
ont
－
▁level
Percent
提
izes
▁reality
Bound
mal
wi
stadt
▁carry
色
udes
衛
irit
▁eingesetzt
▁N
▁Sin
▁dieser
IME
▁Alt
tk
hö
▁MAC
iom
Ī
▁philosoph
▁Repub
▁Institution
▁installing
при
вля
▁mont
cost
publique
AK
▁Beispiel
Ph
▁gard
bridge
▁Intel
▁Cook
ǫ
yg
Setting
lette
▁UN
▁département
▁players
如
▁дра
concat
▁tennis
⠀
▁strongly
IGN
▁пункт
▁short
▁navigate
▁Lower
్
で
сли
jack
PAR
▁facil
▁specific
≤
:{
▁ideal
otti
▁hitting
Cond
audi
ritt
Autow
egr
ixon
▁+
▁nog
keep
▁lengths
▁quickly
▁Tele
,.
gray
▁HT
și
除
ді
yme
▁Slov
▁presently
+\
Position
ouvelle
▁Rose
▁университе
▁prem
▁pog
▁át
▁blob
▁clin
}^{(
▁`\
ponents
Repos
▁Done
▁certain
ribute
AR
ANGE
▁Gebiet
才
▁brief
▁portug
▁erhalten
honneur
▁tym
▁Pat
▁quantities
▁hvor
▁fort
prepare
adr
chts
▁definitely
ace
▁mentre
rame
▁recovered
▁Tir
▁inglese
']['
schutz
jets
▁участ
)|
▁cov
orph
▁kter
『
▁Tun
rollo
enschapp
▁particle
▁Akadem
шей
}\,
▁защи
limat
▁dow
oemd
▁Dieser
▁werd
▁capit
▁Nau
▁са
riteria
ной
mana
▁#!/
▁специаль
ople
actory
crit
innen
icina
▁boundaries
▁Ah
▁Sat
▁Ek
anter
▁https
ssh
▁accum
ровой
ísticas
▁vers
vek
▁Алек
▁defines
▁Majesty
ROP
武
nex
гле
▁Int
▁ra
▁surface
▁interval
▁Saint
▁quali
писко
员
':
▁über
▁Indust
▁federal
▁Failed
thread
▁up
▁доро
▁сам
▁cogn
talet
▁evolution
▁column
▁sent
▁transport
account
Span
gren
IN
logo
Ang
lait
aho
capt
▁gover
Request
});
vironment
▁Пари
▁alternative
▁Academ
wner
▁shall
▁flesh
▁here
▁somebody
▁\<
ängen
▁torn
▁shoulder
前
▁starting
нь
fn
Omega
male
▁analyt
▁Website
ata
▁cl
exe
▁seriously
▁villa
ль
brit
▁Papa
▁Soc
="/
ynt
identifier
▁cattle
-->
ätten
▁capabilities
▁Team
któ
▁Puerto
▁named
▁Yeah
▁go
▁sessions
▁bataille
▁BC
elly
▁Primera
▁Lucas
Feed
▁Mit
buntu
统
キ
Reference
ře
▁create
▁Maria
woord
▁decl
▁rés
▁flex
__.
ieben
undred
ヨ
▁liberal
gegeben
▁течение
▁Error
▁Ass
atura
▁Europa
▁escrit
suite
▁hints
▁`-
ссий
▁rond
lines
▁happiness
ka
asket
▁notre
▁coh
ycler
▁дерев
▁definition
avia
returns
▁fosse
八
Read
▁Nancy
blockquote
rav
▁public
▁contract
▁ref
▁disput
▁lab
▁Мекси
▁Enlaces
▁contrad
▁continent
▁Его
ه
Draw
▁octubre
▁компа
▁Notice
dorf
▁IF
Context
▁lo
▁csv
~~~~
▁campagne
器
▁another
▁embedded
▁coat
reverse
▁Sav
▁"#
Encoding
uni
林
▁mock
▁populations
jquery
sig
çaise
▁ноября
sur
♠
very
Inflater
кие
dem
▁\,
▁januari
▁сторо
ci
normal
▁instances
▁princes
▁Watch
▁å
grund
▁Milano
▁már
pan
▁rôle
▁Biography
▁woods
Em
▁mines
rano
oren
▁FK
▁Juli
<0x8E>
▁Dies
!”
▁få
zan
ized
▁town
abord
▁sentences
▁lif
▁replied
fs
▁Connecticut
▁tim
Rout
▁momentum
gas
actér
▁AB
▁heading
change
▁espèce
fram
izz
üg
lobal
⁹
▁posts
isons
ORT
werp
isan
ride
`}
ряд
kele
-+
▁kur
▁sem
▁crít
blast
▁dues
▁groups
▁și
selenium
hausen
▁Bulgar
▁Wi
род
▁française
以
▁Why
SERT
war
arg
▁поле
)-\
Left
пута
вет
▁Wikimedia
urrence
▁för
▁simplest
єю
▁Констан
▁sistema
▁дру
▁total
▁sein
už
")`
▁Sal
▁outer
▁juli
▁Qt
、
links
lo
SG
implies
▁recovery
cpp
▁pol
must
valu
▁inde
▁download
news
▁Р
▁MD
▁lux
cida
▁June
áct
Edge
▁SQL
\/
▁keywords
▁Río
▁Cruz
cej
State
▁substr
jin
▁Cel
実
ні
ematic
ƒ
ссе
тал
ját
▁гор
standard
▁Hit
▁expected
lac
▁eredetiből
reen
▁equation
direct
flug
<0xC6>
▁Про
ַ
proj
azzo
▁characteristics
ɐ
▁lake
▁oraz
Yes
über
<0x24>
▁MVC
▁container
▁Sp
reate
jQuery
▁restriction
Subject
Workbook
ueil
▁drums
▁Young
<0xA3>
agle
утбо
▁esta
LIST
菜
ipedia
оло
usion
west
icum
▁Disk
▁Aven
▁SI
▁має
▁Pul
▁TextView
▁Sir
Flag
Ъ
▁Бе
▁Lieutenant
▁clicks
рой
edor
way
ht
▁perd
▁ép
▁több
▁Lak
rom
osex
▁dz
hab
За
every
êts
ünst
RS
Created
▁keys
▁sd
▁deven
ulus
▁Fitz
ла
▁Altern
▁add
fico
▁août
▁inglés
┌
ED
only
pc
н
▁dag
▁impress
от
▁mart
heten
▁Either
bir
ignon
▁slider
連
▁dabei
ён
####
ately
átum
Fi
▁onderwerp
▁Vitt
▁основа
▁Supp
otes
▁Year
тики
main
▁Updated
clo
▁sulle
ière
NSURL
▁hits
üss
▁poet
пода
▁errors
▁Blood
jub
▁nost
▁called
Shell
.»
édie
en
Exception
▁Ä
▁nå
hoff
ُ
username
▁brit
▁Tom
▁unsafe
▁lle
▁klein
ch
İ
▁Woman
▁aff
▁EC
▁String
native
content
▁wars
士
Permission
Qt
]$,
ក
el
"?
▁letting
othing
▁erneut
▁▁▁▁
inek
DateTime
',
▁necess
ąpi
▁GROUP
▁RewriteCond
▁estimation
iewer
▁Erik
▁století
ável
▁instrument
▁indicate
▁Владимир
▁das
▁sang
DidLoad
ר
ätt
rium
ays
▁про
til
▁Gut
▁contacts
▁naar
Pos
скус
ifiable
▁результа
Pr
▁Argentina
eerd
▁Norman
ieurs
Ctrl
▁ging
Ha
pic
leich
ól
持
▁Bere
▁Jed
▁stro
mense
▁ot
fik
xmlns
styles
ism
▁Past
▁sick
後
guer
ptions
lace
▁gioc
▁APIs
話
leqslant
atin
zz
▁translation
▁tras
▁represented
▁Caval
ер
Virtual
=""
▁altogether
оні
▁Kontrola
▁rör
bara
▁Don
VM
▁height
▁Géographie
▁successo
▁heavy
▁SUB
▁серпня
▁images
▁woj
▁ал
命
▁Beat
▁о
ovat
▁Ба
▁stays
stringify
▁television
oint
▁disc
▁је
ل
▁semif
enz
ulle
jud
▁streets
▁activation
▁mand
▁improvements
Gu
▁être
▁Pay
руг
▁plant
css
▁róż
▁opening
▁Mitglieder
▁voltage
▁кри
▁Uncle
▁designed
▁zawod
̩
inden
aligned
▁poc
zero
metros
тором
oslav
reso
▁Nice
▁journey
highlight
▁uns
▁difference
ITY
простра
слу
Equal
▁где
Full
▁neighbour
▁Akademie
▁oct
▁shook
duino
ycle
█
веде
▁ASP
зы
ppel
▁relations
ole
▁ball
﹕
кой
ivot
▁io
▁пла
▁anterior
▁AUT
written
▁bucket
▁included
ilda
▁techni
entation
▁becom
Expand
▁excess
▁drew
▁прави
attr
дри
▁Videos
Loc
usage
)[
▁){
▁tanto
quarters
▁оборо
▁file
▁Vern
сан
▁trap
source
▁Hus
▁Нью
eben
Change
chapter
▁wh
»,
readsheet
inaire
弘
▁francese
iger
dim
▁murm
▁Pos
▁semantic
App
ovie
ům
ång
▁Wayback
reflect
cially
▁elected
▁Sie
IG
▁volta
▁fell
aken
Other
Role
▁recognize
▁soldier
ston
Sem
▁MongoDB
▁compact
owego
后
▁hijo
▁comedy
ooth
▁rise
▁Net
CP
▁уров
▁pav
▁branches
iot
script
clusion
ered
multirow
▁possess
geben
elling
▁Bu
amsung
▁odkazy
▁Crime
▁завер
transport
▁experien
▁personn
ὑ
Hi
▁accomp
emeinde
ostęp
▁sole
▁Over
▁existence
kw
bib
▁Sw
▁Infantry
раль
input
▁writing
▁typ
blo
▁dí
sens
▁Frankreich
▁fri
<0xCA>
cyc
wer
▁Мар
并
url
▁immedi
▁Kö
amo
▁Aus
▁Germany
▁управ
ipt
force
▁info
▁B
▁SS
▁obtained
▁Thread
SM
Anim
ilde
▁tropical
bah
ℕ
<0x78>
ша
▁bras
▁body
verage
▁themselves
▁hello
▁dis
▁півден
psum
▁Mercur
▁python
<0xAB>
▁Type
▁sections
prop
▁Sorry
▁nj
▁памя
onica
scriptsize

忠
▁Mix
▁Walker
未
▁fe
▁Bh
▁UTF
▁Jonathan
лій
▁держав
▁approaches
每
aggio
нием
ání
▁wechsel
▁definit
▁":
☆
▁кон
ze
<0xCB>
case
ledge
jsp
▁Dieu
▁experiment
▁війсь
structor
▁Ві
cre
▁persone
Copy
第
▁technical
▁denote
ped
▁cir
▁autom
stru
ichter
▁released
▁village
▁MS
ी
▁explore
estore
▁ms
:#
▁насеља
foo
▁conoc
:)
夫
▁wherever
▁Ortste
sr
iembre
<0x77>
▁між
<0x86>
▁Jersey
triangle
▁moż
▁transparent
IES
jpg
▁hen
▁repeatedly
▁pays
!"
▁proud
hal
▁Regiment
▁zn
▁Rodríguez
▁Projekt
ii
▁younger
nofollow
▁myth
owej
Anchor
▁і
seconds
pta
▁matters
▁Mont
▁Trump
▁safely
▁NAT
▁тако
▁Quant
▁wanted
▁explanation
NUMBER
▁Game
▁Base
▁Lot
▁▁▁▁▁▁▁▁
▁Landes
▁thrust
▁bul
company
syn
▁repr
тя
▁narrow
ène
Ber
Zip
Е
▁Bened
third
▁an
kre
you
NI
meister
▁opposed
▁Los
rose
yes
▁фев
érer
▁category
▁passed
▁bon
rut
▁embed
▁sortie
▁Präsident
▁capture
▁sacrific
▁records
uela
Ō
teenth
----------------
▁application
arie
▁McG
вшие
ennes
▁None
ENT
oris
нут
Ö
länd
^-
▁Cer
yth
Ent
▁disposition
▁offici
▁registers
Cast
▁XP
▁cré
▁down
äger
ey
▁Corpor
▁opt
reas
itt
▁junto
▁laat
ischer
ття
▁stud
▁nazionale
floor
▁жі
▁Joe
▁в
colog
▁desktop
▁AJAX
▁landing
ď
▁sehen
cd
▁femme
ensk
)}\
endra
dimen
▁sub
▁fog
Miss
▁fost
▁covered
▁Property
巴
▁aj
issues
лосо
▁param
,\
▁sleep
▁Bart
.<
----
▁kinds
▁Washington
вает
ží
bes
▁combined
▁изда
▁Command
▁aer
▁dispatch
▁whom
▁któ
INT
▁möglich
innerHTML
писа
},
▁v
BO
▁predicate
Wel
<0x13>
▁hosting
▁typical
▁debate
zen
▁Lucy
▁Bos
ěl
▁FILE
▁была
▁sexual
▁consec
മ
▁emphas
▁Gó
Socket
▁throughout
Mark
<0xDA>
▁Tri
ious
▁These
ikz
refix
itable
concurrent
ζ
▁result

▁donn
Mod
onym
▁phenomen
ards
▁memory
▁Prime
▁CGFloat
▁evening
▁Liverpool
▁eth
eld
▁dés
▁surpr
▁conflicts
▁Svens
erek
looking
▁trabal
▁Qu
ventory
▁Sa
▁items
TR
▁hay
▁Су
▁мало
≈
ginx
weit
▁Bowl
▁сельсов
▁rest
▁Otherwise
▁Après
▁coach
akult
wen
ट
상
oval
▁días
▁Parent
сов
outs
many
▁Kais
▁screenshot
ynchron
Helper
▁Düsseldorf
ialog
Chr
▁Ell
▁Marco
▁Bundle
agen
TA
ipage
apter
▁micro
зва
▁Laravel
▁anos
▁sind
▁Athlet
oun
rx
▁cui
▁wiel
▁Köln
urent
ham
▁Сред
▁Montreal
▁Tried
▁steady
bez
▁infer
▁profile
▁Bres
▁Müller
▁possessed
▁coming
▁Tim
к
▁Question
▁Altri
▁publishing
▁Frame
▁amplitude
ae
,--
rew
▁Nederland
osz
▁admitted
▁aust
Ed
apply
▁EN
gresql
▁sk
éc
ператор
iert
шого
Bind
▁valor
す
zem
▁stata
▁Dok
сут
▁W
▁UNION
▁meet
陈
▁Louis
.).
tre
▁phot
cipe
CB
▁dess
giore
сподар
jk
▁откры
▁clubs
refs
▁Then
▁syn
⊙
ural
▁szer
▁Alfred
azionale
ʊ
▁Ent
▁Hermann
▁CS
UPDATE
ό
submit
▁injured
リ
▁dated
▁Grund
interface
ave
▁handed
▁Де
▁Azure
▁Lady
▁minutes
key
▁Target
ум
曲
چ
▁tourn
ouble
▁Background
iona
▁A
▁også
Б
▁Tu
пас
▁--
▁més
▁Head
.;
▁destin
▁хра
आ
ström
▁desarroll
chez
▁modal
▁zeigt
>()
▁pilot
mv
IK
▁Aur
het
lig
▁Having
▁longest
тив
▁Sup
▁pian
▁hence
▁fas
▁waters
ả
▁colors
▁esterni
▁propos
чення
▁expand
HERE
▁mental
itzen
▁served
▁motor
▁pse
orage
DP
Authentication
▁живо
▁ря
Ig
▁Click
▁worthy
GB
kehr
enten
cludes
▁billion
lin
▁caller
州
▁fé
<0x34>
сно
}}%
▁also
▁nomin
worker
стя
▁principale
information
œ
iku
▁nav
▁\"
mer
▁a
▁пров
aking
▁Commission
▁rozp
lou
▁nouveau
herr
▁court
]=
uuid
cí
olate
▁answers
▁scatter
)](
▁Цент
PL
하
ája
ali
▁avec
▁Honor
ден
estion
▁(-
▁Pakistan
▁Preis
▁right
▁VS
▁freedom
▁leaving
editor
▁delay
Outlet
ffff
▁pak
▁"",
洲
▁experience
ół
ϵ
▁Flo
区
▁involved
ℂ
lib
▁bald
▁М
)]
ächs
▁må
éta
▁families
ectors
▁Em
▁seem
attro
▁Apost
dup
viron
▁incon
après
plorer
öß
▁palace
olin
́
Cla
chte
▁problemas
ferred
▁routing
ництво
FF
extend
▁Pick
Ά
▁consists
GA
utils
▁Serge
di
▁cont
aver
▁Pattern
urchase
ә
▁Ro
▁composite
▁então
▁separately
▁module
▁Chamber
▁инте
▁Prés
notation
▁Button
kern
▁since
▁Ba
▁fla
FILES
▁llamado
тный
arga
▁prü
ع
▁Netherlands
aur
▁taught
▁exponential
▁роз
icate
▁starts
loyee
Gener
tion
用
▁join
▁Jak
>\
▁membres
▁cried
▁gla
▁initWith
bucket
▁diagn
▁respond
Original
‐
∅
▁orient
▁Pr
▁Hard
与
▁consideration
qquad
▁frequently
lassen
▁поме
▁be
应
▁zou
live
dbo
▁началь
▁monde
▁mog
inner
▁gauge
AXI
isko
kö
ственных
лександ
▁Wisconsin
directory
▁Zie
FORM
▁Chart
▁Transfermarkt
generated
▁developer
▁Sultan
logging
lings
temp
▁gods
ively
PT
▁Duc
com
沢
▁eye
▁UE
▁AllMovie
▁offices
urance
cast
Core
▁rice
▁mujer
▁década
▁menu
▁Lin
ших
▁creates
▁skip
ORS
▁sixth
voy
▁lock
▁první
horizontal
▁league
бри
ERS
▁iz
Seconds
Sub
▁ecc
▁proxy
Delegate
чин
ъ
▁Trying
dj
ánico
avait
；
▁nom
LETE
riage
AND
кры
liver
▁italiana
▁років
Com
mid
▁hosp
▁noreferrer
Pool
eor
лів
▁compagnie
▁stage
▁suitable
▁comprom
Navigation
▁Гри
valid
ategy
ká
▁vall
▁willing
enabled
▁Param
▁Change
▁gall
▁стар
▁patterns
▁Korea
да
▁Agricult
▁június
kit
▁Singles
umer
ются
]]
itors
amilton
parser
мира
▁vert
▁sendo
Throw
▁Він
▁nick
гар
▁equival
▁От
borough
▁acceleration
▁party
Marker
peat
▁e
zeich
}_\
▁През
white
▁Conse
idas
ferrer
▁Ot
▁bow
iali
▁York
Donald
icken
▁eng
▁Emb
設
empio
mes
ijd
let
мом
▁Cost
▁intel
optim
писи
▁advent
users
▁reaches
ility
<0x67>
ļ
holder
▁representation
ppa
HA
тий
aze
aines
ś
▁disco
▁Dres
▁been
▁wire
▁spiel
▁Kas
▁witness
Override
Angle
▁batt
amentos
▁director
umption
ospod
▁Insel
▁simplify
Conf
/,
▁com
▁succ
▁Stock
touch
▁Android
Azure
▁incorrectly
']
heid
notify
<0x25>
该
SER
кре
second
▁дву
▁fu
avi
▁Japanese
(/
▁reading
.*
ought
▁mejor
形
▁algorithm
▁knock
Methods
▁Slo
▁reverse
▁Luc
▁decimal
▁oldal
▁Which
▁Kenneth
▁classific
apper
▁sint
zon
▁prix
▁variable
tl
▁wall
wt
▁trag
ग
multi
▁{$
▁emp
UNT
▁ceased
▁`:
dest
▁Angel
レ
▁routes
▁entwick
▁motion
ta
▁INFO
▁removed
uments
▁Regional
▁instruments
ependant
▁(?
▁куль
uteur
eties
lei
lach
din
urger
▁love
typename
late
▁Wind
author
▁wid
岩
▁partecip
>.
prowad
#,
▁tuvo
p
▁boot
▁kleine
▁skup
subsection
▁Sver
▁nearby
▁Sk
Ś
▁wer
_)
▁Bulg
Duration
▁conn
▁review
curity
pool
there
Delta
our
▁mo
uri
▁sto
ements
▁савезној
ּ
▁essere
▁millimeter
▁loro
▁mkdir
skog
OF
▁Bas
used
▁fast
▁всего
▁tab
Ý
DB
▁Red
▁serve
▁imper
▁compiled
▁doch
rás
ým
and
XXXX
▁Probably
을
delta
itivity
enas
/
worth
▁fiction
ulture
ÿ
▁Max
▁без
▁Westen
▁derrot
▁Hin
▁camera
pieler
▁się
▁zes
▁svensk
▁verlor
ド
ett
ribución
bres
inx
▁листопада
▁equations
▁Rest
▁Bibli
▁reson
▁München
▁Charlie
ǐ
▁спо
▁fünf
ся
save
▁Mond
нів
▁sitting
волю
шње
▁sed
▁Список
▁minist
▁libre
user
▁Ryan
onte
auer
▁clearly
▁polynomial
▁PS
angen
ento
则
塔
elen
ția
▁wen
htm
ану
Sender
▁Und
▁которых
dz
▁Nachdem
福
▁price
প
性
▁induced
persistence
gent
▁Employee
ík
▁accepted
seg
▁concent
();
ocal
body
▁Administr
▁recre
era
▁loud
▁Нов
▁Turk
▁Da
ialize
▁испо
▁Single
▁train
▁translated
♭
▁tf
▁vom
▁pia
▁milieu
mag
quel
pass
▁div
▁Air
▁Mes
▁perpet
▁INTO
uche
▁"
▁Len
ank
ussen
▁unfortunately
High
▁истории
▁Esp
▁aspects
alls
▁Hotel
ensus
▁mondiale
agli
▁tempor
▁occurred
▁dois
/?
ORM
($_
←
▁liegt
任
▁let
hood
▁sab
<0x60>
velop
verso
пі
വ
PM
cases
▁fav
▁derivatives
Parse
▁environment
igration
▁Tot
brid
▁recuper
abeth
会
}:
las
сті
‾
quency
▁theory
▁Ac
ids
▁Pologne
<0x1E>
ingly
▁murder
▁Rö
▁stor
▁Bey
▁Peters
▁bud
ël
scriptstyle
▁Nem
▁LINQ
ohl
▁manifold
▁Assert
ása
▁leurs
NF
CheckBox
▁gut
AL
▁ved
<0x31>
rinn
ão
olation
Introduction
▁bib
є
̲
uclide
▁работал
=&
▁They
▁b
▁overhead
▁Ср
▁`_
▁Allow
收
Struct
▁completely
▁secretary
ɔ
▁августа
指
ust
▁verified
Link
ведения
ھ
▁auc
Factory
▁swo
Butt
し
▁repos
▁employee
▁phases
▁ton
relax
▁StringBuilder
▁ce
youtube
▁Bla
oka
community
?)
▁Study
▁nodes
Service
▁wc
▁Column
лли
ientí
▁finishing
vic
▁kró
多
▁fasc
▁Sib
vey
})$,
▁Савезне
▁betre
▁Ste
▁Crown
▁dec
▁Ren
▁dx
▁цер
iro
ciendo
▁James
sent
▁career
createElement
ķ
abe
Integer
▁Limited
▁ch
Live
▁sizeof
Supp
▁California
athan
▁relationship
éné
就
знача
▁Wilhelm
imming
▁внут
▁Swedish
▁Day
anna
нала
ка
▁Ho
▁Pow
Develop
rel
ष
Θ
ứ
based
other
▁Alter
atically
സ
▁dig
ował
Where
Ј
▁prima
▁броја
▁Хронологија
▁Bian
▁random
▁eu
▁still
▁written
power
▁NSString
▁pri
▁bigger
Driver
oured
▁Junior
umbn
lbl
▁note
wend
track
▁metropol
▁exterior
▁zwe
▁Bib
▁Stan
Ke
oving
▁significance
▁benchmark
рово
Width
▁See
рона
vard
▁Viv
bi
▁../
ISBN
▁Ind
▁afford
▁Bobby
▁tradicional
▁pg
veg
ContentView
▁Dios
xxxx
▁Sob
▁resolve
ted
▁Smith
acc
▁seizo
▁Colors
<0x75>
▁Natal
▁Clara
driver
рёх
igte
lack
▁CLI
ေ
ening
ši
png
▁report
▁пор
▁shapes
▁Wayne
фици
′
▁term
ensional
▁travaux
AF
▁three
▁though
▁кор
▁sempre
▁Vall
loader
▁JVM
▁concerns
esi
edeut
▁USB
Петер
▁Hamiltonian
▁All
)`
VC
▁také
ionali
Python
▁XX
glass
>
iration
▁sic
▁områ
Icon
▁Ev
▁has
amenti
被
▁kilom
▁ans
rror
asia
⊗
▁Hills
▁revolution
party
PE
aster
И
bound
yle
Ar
<0xF5>
bie
той
▁configurations
▁interpretation
вав
▁asi
▁Hy
▁Milan
=(
iterator
aties
ragma
tte
alk
▁around
kord
▁drink
side
▁planta
▁Friend
ене
▁Partei
ione
▁free
čka
▁ownership
▁Cos
▁maybe
▁raggi
rot
▁overlay
ộ
ând
▁mely
▁sorrow
▁jun
pher
▁encryption
tmp
▁Princess
▁были
属
рова
▁dynamics
abile
▁Lincoln
▁Kör
creen
Network
▁Scala
▁tog
laim
▁nations
▁Res
▁sur
▁само
▁Write
racht
iva
▁gets
дж
▁SET
▁Ka
▁kost
▁Cow
Compiler
▁When
Count
activity
▁write
▁bek
boldmath
stal
▁Jo
海
▁sau
▁experiments
î
ry
ペ
Axis
▁ignored
」
▁tijdens
new
▁lé
Ex
▁uses
▁filesystem
▁cí
▁guess
oder
chestra
▁requirement
▁Retrie
ᵉ
▁*)
schemas
▁општини
▁deleted
造
▁liber
▁mistaken
ட
▁tables
player
▁Austin
╣
Height
oms
tout
▁bit
Tag
ather
▁Depart
vest
Adapter
▁signing
▁design
square
▁donna
aine
▁datab
▁официаль
Boolean
▁case
proof
▁clone
这
édition
▁chain
▁PO
SESSION
▁Feld
клад
▁Ram
▁Range
▁NCAA
▁Jup
ό
century
▁artist
няя
CL
▁ended
▁verse
▁Diam
▁più
тен
▁park
选
limit
▁colle
urable
anonymous
ència
ography
▁sz
кси
Dec
__(
kwargs
inv
▁especie
phere
▁su
ダ
itch
umed
config
▁Stanis
sym
addr
▁Ped
▁inserted
▁facility
▁casi
Ф
▁kom
ellig
GEN
向
▁liberty
▁pack
▁powiecie
▁ancest
▁DAT
a
perform
oda
▁Awards
▁<%=
▁Ras
▁districts
hol
▁tort
itime
▁многи
nat
▁bulk
▁Premier
▁уча
bone
▁dropped
▁Mand
▁timer
DOM
▁consegu
▁cependant
rams
▁совер
▁BB
▁tradu
▁sla
▁coloc
▁Геор
▁Auflage
▁américain
▁decis
ř
▁debugging
▁wealth
este
▁Opera
generate
▁revis
np
▁válto
ann
▁них
унк
▁acquaint
▁scholar
viously
abb
▁obten
defin
▁Fol
—
ütt
연
babel
▁Michael
技
OUT
▁Battle
▁Dutch
documentation
Days
▁vend
▁appel
▁Py
▁thee
▁phys
fluss
▁Term
ֵ
algorithm
gal
hbox
cito
▁spare
onal
▁beam
velope
▁City
Fran
▁U
Κ
▁фами
▁Uruguay
usk
▁externes
▁DNS
liqu
▁projects
lá
▁Major
▁union
ís
▁speak
ье
▁entra
PF
▁preced
▁je
ffen
plotlib
▁Schriftsteller
CES
▁stronger
▁offers
ා
▁guarantee
▁canad
its
▁Chinese
quez
▁track
▁Directory
hline
▁Leipzig
eqnarray
▁computed
utt
▁undert
服
▁bew
▁scattered
біль
▁visible
wrapper
geordnet
消
▁differently
▁Category
▁watched
ῦ
▁Virgin
▁Buen
▁Пів
Did
','
▁Sof
pre
▁true
▁phen
▁Dog
▁каче
▁focus
guide
可
▁föl
▁doi
clus
▁Ess
mysq
▁unh
ention
▁Olympedia
▁Entre
ucture
▁Last
▁the
▁све
▁иде
esz
сы
▁Luke
▁н
▁figur
╦
▁Б
▁ü
Z
▁hash
▁happ
▁organiz
▁Creative
▁sovi
wiki
uss
▁Human
▁opens
enario
▁scarc
uszt
rag
门
▁Giorg
▁Definition
▁sf
▁got
▁Lorenzo
▁deliber
ге
▁conditions
▁jeden
▁
▁Online
gly
▁dependence
global
internal
vice
▁tit
каль
born
▁evaluated
▁proc
пози
dates
leted
▁gender
▁march
Ap
bean
▁Dro
forsch
▁півні
bě
indu
▁Results
진
leb
braries
▁identific
lyph
▁foundation
ABLE
▁fet
рий
hanced
ggreg
ם
cell
▁Bau
▁regarding
Memento
ана
▁успе
▁stack
▁supported
▁Orts
▁Weblinks
utto
iar
fortun
notification
▁Specifically
mor
▁literature
▁Hyper
―
▁Full
▁zoom
Widget
ogle
▁corte
uits
▁ла
▁Giovanni
ylvan
▁allowing
▁elő
lès
cier
par
▁Č
▁pd
▁children
▁domain
Ac
Stop
▁Famil
▁Another
▁streams
orithm
▁Evangel
▁Controller
resse
cknow
ore
▁####
▁ofic
isp
▁salt
▁null
▁Bol
▁tens
Async
▁spring
▁dirig
skiej
ív
axy
言
▁repository
('
▁исполь
▁keyboard
▁Het
▁röm
FIX
▁Staaten
▁denn
▁byl
全
▁част
▁two
▁protest
platz
▁Boston
▁Building
说
▁så
▁wing
▁radical
▁Ung
▁Those
ierra
usetts
▁Expression
▁occupied
▁tribe
indo
▁reck
лем
зин
▁februari
Mutable
▁listener
▁persones
▁Build
▁intersection
▁río
▁er
▁Ж
ög
▁enemies
▁Please
▁hast
▁хи
esehen
<0xD5>
▁exem
tf
▁Made
▁internally
▁located
isi
hre
▁nim
itled
▁Personal
ecause
['
mysqli
▁ufficiale
ш
ャ
▁Alexand
History
ท
▁removal
▁vy
pus
▁Externe
MAX
▁moved
buffer
ordered
▁alap
▁Wohn
▁nan
▁juego
дня
Her
▁ui
aki
forall
äch
builder
▁André
▁CV
дов
face
vi
▁hyp
▁reb
▁faster
▁strik
timeout
种
пр
▁Kant
▁э
nil
▁doctor
▁Aff
▁Production
▁nahe
Mag
ു
▁Promise
▁peut
▁puts
新
▁coverage
▁филь
any
▁align
▁hum
▁recogn
ARD
▁engaged
ulsion
<0x62>
▁lookup
▁Bedeutung
▁што
Exp
LEASE
▁members
fiddle
äude
oking
▁Eli
▁fine
▁Church
▁correl
▁Select
agini
▁svě
integer
▁aper
▁craw
ض
▁comun
▁arriv
▁Show
♯
jamin
colors
ecycle
▁xs
Len
▁ren
▁Trib
aper
facebook
▁perten
▁tutorials
▁entrance
▁am
▁Beach
ordre
sen
া
No
ably
▁src
▁primarily
▁preceding
atri
False
▁qual
üller
▁dare
▁po
ห
%.
▁profess
▁replace
icles
USA
ounding
ativ
render
▁division
matrix
Close
▁сво
▁wieś
▁approaching
ど
xtart
Ge
▁confidence
▁Kn
▁coal
▁circle
▁церков
Local
▁ш
activ
plan
ný
Class
▁Botan
margin
▁nat
ာ
uten
▁subsequent
idence
HTML
▁населення
▁є
▁dok
gleich
mathrm
ै
▁IC
▁proceeded
▁guidance
regex
LayoutParams
▁Stra
▁назва
▁listen
▁gro
];
icing
▁MainActivity
▁Real
onnen
▁коман
▁Cooper
▁Cast
gel
▁swe
▁includ
▁assumptions
▁bond
▁coll
▁crown
▁Ти
▁Rog
ló
▁Marvel
▁дет
▁types
▁actually
标
phe
▁royale
▁Sand
▁used
▁therm
▁ugly
pis
▁Ig
▁quattro
uto
Accept
▁нап
pen
▁lowest
zy
▁foo
▁Ny

unächst
тем
би
ów
gable
▁fields
▁marque
ieron
무
uis
▁Dezember
asing
IABot
▁oktober
▁trail
>",
land
▁añ
hew
▁portal
▁vitt
▁meg
braio
chain
raw
Jo
▁backup
скому
▁already
劉
▁les
eland
基
▁cout
elligence
BA
▁с
▁bien
▁lu
▁calciatore
▁Inner
▁embedding
()`,
ums
isée
：
urn
▁Warsza
▁partiellement
▁-->
ぐ
MI
▁Unity
▁Gef
▁Distribution
imas
TD
▁frequ
<0xB1>
▁Angular
▁fa
sn
▁There
▁Források
▁Division
ња
$_
▁buff
⇒
▁uit
tocol
▁suoi
icrosoft
▁Trust
▁ні
jähr
▁forming
▁apro
arc
voor
▁decre
assets
▁engines
▁°
lee
ZE
▁buy
▁blieb
ب
▁altri
Cons
▁dll
delete
▁evaluation
pective
provider
OT
▁validation
▁Santi
Process
▁Json
öld
▁сайт
̯
project
▁pan
lica
▁wys
filled
▁um
IP
aves
common
▁reasons
▁Copa
▁omitted
iał
fficiale
▁cidade
▁oil
▁bits
aru
▁breast
ơ
ு
egy
obe
aglia
phia
▁producing
▁kwam
ⁿ
Scope
ells
▁RC
atore
▁demand
▁Will
▁Samuel
▁área
▁Фа
▁svo
▁ham
жды
▁Random
▁Xcode
▁ah
ails
sing
▁reproduce
▁Kam
▁co
▁matrices
olis
▁administrator
ĉ
▁його
▁бри
▁Census
▁bout
ším
į
▁which
▁Html
iful
results
▁fed
▁larg
▁висини
▁\{
▁Navar
▁Kob
mic
▁laquelle
▁Externa
▁juris
▁Lob
▁Err
Christ
▁mechanical
▁cerem
izzazione
Dialog
▁vil
⋅
iance
▁fires
ionic
▁cin
lement
час
を
<0xBA>
▁Ya
aja
ammed
▁Root
aska
▁erg
▁explains
▁hors
▁block
島
gradient
▁poz
approx
▁некоторы
etime
▁operating
▁Us
▁dram
ib
merge
сто
agnost
▁solving
▁gallery
reb
▁segu
▁markup
ships
ང
clear
▁Point
lla
▁remarked
▁Arn
▁series
▁siempre
isser
igny
need
Times
(__
ég
racle
Completed
▁websites
ь
▁Wolfgang
ństw
aci
▁(„
inue
idd
▁companion
▁comprend
▁Durant
arters
UK
▁magyar
ku
uffle
}{
ights
bet
்
emi
▁Options
chron
atz
othek
ará
Done
*`
cdnjs
∪
eta
query
lein
plement
?"
▁inspect
RAY
▁Bl
▁brand
▁Greece
appen
perp
▁Росси
▁rev
▁орган
parent
hez
▁raw
▁gra
▁confl
▁kilometer
▁später
äufig
▁Insert
▁appointment
▁True
▁fruit
▁integr
▁recorded
▁ws
'));
▁:=
▁Observable
ך
ղ
▁float
inois
▁Maz
бро
▁feder
▁ange
默
äd
седа
▁Olympics
▁Ziel
▁Core
PP
▁которого
rell
IR
▁людях
oh
rund
종
▁Wes
▁layout
▁avril
фо
)$.
cdn
▁две
դ
<0x35>
adding
ighed
▁functionality
▁front
sime
Ć
xp
nen
▁org
▁éc
ア
isten
bt
вич
DIS
▁today
▁журна
▁convex
Bro
variant
▁remainder
▁sheets
▁pow
▁працю
▁asym
ks
▁repre
fort
WH
▁seconde
UT
▁church
sieme
▁Por
▁Кри
function
▁opera
ício
▁prze
maker
▁Ans
泰
мя
▁године
▁Motor
Task
ც
ijo
▁valid
histoire
▁$(\
▁nar
iza
▁relation
тели
▁пробле
▁choose
adoop
▁Juni
ilder
▁face
▁trat
▁conjug
▁Correct
ἐ
Notification
indust
▁району
train
▁tomcat
▁corre
▁monarch
imo
▁tribes
▁Становништво
grand
management
endencia
▁фран
▁ober
cies
우
メ
icola
▁adv
heure
<0x64>
▁tableView
tm
iostream
▁Fair
▁dying
loop
▁ub
}+
▁triumph
hagen
onaut
Symbol
▁mirror
▁Communic
тного
▁voyage
<0xF4>
sterd
ospel
èce
destination
▁zat
▁simp
ARY
▁press
achen
▁surve
totype
functions
search
wich
▁Schutz
▁pictures
▁participated
▁Modern
Horizontal
enza
ן
do
\.
utable
жу
egn
▁Europe
▁ISSN
▁CHAPTER
нова
кипеди
éli
ya
▁dispute
Й
▁creation
▁Gate
Ћ
▁Muhammad
其

oma
▁sql
dot
red
▁least
piel
undefined
▁ha
tagon
▁Begr
hui
▁_,
▁veröffentlicht
ʻ
collapse
▁Maj
▁adjust
参
▁Kre
бе
ability
▁mad
▁Suisse
aining
¿
▁город
다
signal
up
▁cor
sample
ansion
▁unique
buf
dynamic
kirche
▁Password
atable
num
ingen
▁благо
▁outcome
ait
MIT
estival
▁Gree
▁tv
▁español
▁руково
done
▁Weltkrie
azy
▁manipulate
▁Dun
ca
▁consist
▁Verlag
▁menor
фи
rules
▁č
leid
Tree
▁logging
▁m
Sec
▁Computer
фек
▁Schaus
▁Similar
▁Dort
hi
▁Railway
判
öv
▁maintain
▁Januar
▁subst
imi
nt
wave
▁pel
ición
airo
▁redis
▁Mundial
エ
=\"
entlicht
▁automat
▁zwischen
▁octobre
ння
ous
▁pod
▁target
▁letters
▁local
wand
▁pat
▁hover
<0x84>
▁State
▁Home
ahr
▁Perhaps
ø
▁auth
img
▁fid
▁canvas
вши
▁ten
;\
Theta
▁valle
France
▁Father
▁Name
▁Pod
▁intros
riz
▁cientí
dern
▁Encyc
▁enabled
▁Che
▁би
▁max
rev
acs
authentic
▁geldig
▁rez
shal
▁etapa
ким
▁han
▁hoof
▁offer
eltemperaturen
▁BBC
▁але
("#
转
we
kens
Or
▁fecha
▁Alberto
ression
atuur
▁preg
₇
çu
▁magnific
}%
^*
ет
BR
line
▁Mission
▁Next
▁coron
▁pic
[(
▁Lloyd
▁Andrea
pay
▁Bou
mund
▁osób
▁dent
ITH
▁Context
တ
▁Laz
Numbers
好
шки
isz
▁dem
▁Wh
▁place
▁wel
▁Jew
scheidung
▁la
тури
▁top
▁Исто
Cache
▁okay
WN
▁Stack
▁particulier
▁Fiche
▁Kings
ḩ
▁Alternatively
ąż
▁flag
▁Wieder
▁réalisé
istant
▁intuit
▁Prov
▁наук
▁glass
▁aproxim
profile
manual
▁акт
",
▁Roman
byte
Þ
vex
▁Afr
▁suppress
Џ
View
▁suggests
бира
rieben
".$
▁emb
ewnę
▁panel
course
▁ske
▁Wir
initialize
▁ID
rent
<0xE6>
▁UI
emos
▁Arag
HOST
SError
phy
直

▁portion
▁conversion
▁?
ula
multiple
cted
▁trig
Update
▁Minnesota
мат
▁comma
angel
▁XVI
▁Valid
▁Республики
else
▁nuit
▁réseau
▁було
Pi
▁inherit
ags
macht
кал
nung
shift
ox
▁monot
▁dog
▁Verein
▁ott
春
▁Excel
▁музы
aders
型
vector
usable
ège
▁shore
▁Other
ét
▁nice
▁Ha
orge
▁saving
▁corresponds
▁Amazon
▁habe
▁Vincent
which
▁caching
▁Eastern
▁Download
（
cam
▁bomb
Ô
bau
urg
OC
▁Americans
Ste
Face
▁október
▁indicates
▁path
(){
▁virus
▁prepare
▁organisation
▁yes
▁wish
туа
▁rivière
▁otherwise
▁solutions
▁compreh
dens
making
share
▁quand
Title
▁£
▁kunnen
▁valuable
▁kis
▁rapid
▁Bran
▁played
ani
▁cz
▁Matth
ureau
nder
▁($
青
duct
▁offering
▁anti
asion
▁searching
▁medium
ähr
▁installed
▁environments
тери
_(
▁everywhere
Nav
▁Today
tau
ರ
▁Menschen
ilst
▁reviews
link
▁водо
((
▁Ду
fahr
stan
夢
▁Member
_{{\
▁knows
▁/*
▁ком
▁сохра
тет
ivity
▁byla
▁DR
▁Chris
▁Dor
six
<0xD9>
Ident
onymous
ץ
▁TO
Try
oteca
▁написа
▁gesture
史
▁read
▁aud
▁automatically
ош
numeric
`.
▁months
nos
Country
▁[:
▁ins
loor
som
western
▁Mou
▁війни
▁moment
▁fug
▁supp
legate
▁tie
put
rá
▁Premio
fert
▁geboren
staw
▁poster
enix
inding
Cre
▁nada
▁станов
▁scripts
ální
▁Рус
▁utiliz
▁Metropolitan
ią
WIN
лю
▁Vol
▁Technology
features
▁двух
ख
omy
▁$('
կ
output
лек
▁друго
▁Censo
▁Runtime
▁Stad
xsd
▁entropy
▁orthogonal

報
▁dov
▁Be
>();
▁authorities
ư
▁—
▁Jewish
spl
parts
▁Re
▁cla
▁socket
ksam
▁ebenfalls
≠
Le
osti
▁mistakes
因
Product
Non
▁INT
▁communicate
лимпий
▁furono
▁ли
Save
▁prediction
point
Strategy
▁km
▁Exchange
▁Harrison
▁results
nl
▁mile
▁Scott
▁hands
opf
▁Machine
]="
▁Galerie
▁cloud
▁Mil
▁Portug
bp
▁Ara
▁open
▁schemes
▁band
▁Region
▁Status
만
ocker
xyz
▁evol
wp
inject
ọ
▁jewe
▁plata
ände
自
▁città
▁мно
역
циона
▁Belle
▁Ir
▁Neder
UTF
▁cart
pattern
▁handles
▁Mechan
▁terra
ging
▁tipo
лина
▁aument
policy
Images
▁Ф
▁btn
▁parents
▁location
agnostic
▁Sohn
▁Oliver
▁fre
>'
▁mol
▁peuvent
▁ground
gebiet
finite
▁восто
");
▁jur
▁dd
ités
ССР
▁veg
ёл
▁gray
▁partition
▁одно
/)
hing
▁sight
▁divs
пня
▁Fly
льный
▁Mira
press
▁ensuite
▁Far
▁Ye
port
▁appar
▁fail
agues
ías
kie
▁Schw
icans
▁meters
ätter
▁ense
▁teat
▁comparison
hbar
▁Cho
.
zione
forward
▁nederbörd
▁American
▁vär
Bo
▁Nic
▁pup
▁reci
▁learned
answer
▁possibly
▁!==
ily
▁extr
▁щ
jev
▁filter
emplo
▁eine
wig
чной
boldsymbol
▁Justice
perimental
▁ili
▁Ferr
▁applic
xis
영
emas
aly
▁name
pty
▁моря
▁nose
visibility
▁cour
▁toggle
кими
▁arbitr
▁Sé
▁Roc
▁recover
ската
串
otimes
-$
aph
▁populate
▁zones
▁Company
▁ім
▁Посилання
▁totally
aler
▁ls
riority
ículo
cpy
jections
ậ
gar
sm
▁mounted
inth
anson
▁Españ
arf
▁держа
▁General
Row
ichtung
ர
▁patr
navbar
▁Archivado
▁AG
▁baseball
▁Mosk
▁Portal
▁Ben
▁surr
म
Portail
emberg
Integr
ls
▁orb
ɣ
▁forgot
chn
neur
▁grâce
▁select
▁orden
SSN
}}$
<0x2C>
▁Marg
위
available
ỳ
iles
▁Norway
зви
onder
ulas
▁lb
る
▁SR
美
▁diverses
unker
▁Auf
▁adopted
▁compress
Europe
spiel
শ
▁arrival
▁fully
원
Arg
▁thoughts
▁This
▁soft
ondo
图
Fin
ck
руп
BD
equals
Invoke
cdot
▁Islam
▁educational
╠
▁nuevo
▁Being
ToString
ский
older
ategor
arium
sak
LOAD
民
▁chemin
▁iterator
son
emp
▁Site
mon
zd
rible
▁ты
curr
ol
▁Cha
▁courses
миче
ink
▁organ
jav
ktr
connected
files
aro
▁doub
▁Praha
dru
▁currently
▁election
▁Adams
IndexPath
ount
▁Вы
ів
▁seed
.),
geh
▁beste
▁Wy
UG
etra
▁Native
▁Claud
Interface
▁attempts
▁upd
▁yesterday
▁ejec
arks
FLAG
▁retrieved
market
Items
)_{
▁чу
▁sit
▁beneath
żyn
▁ensemble
▁about
▁caps
▁után
界
istiche
▁-
▁ус
▁clicking
国
▁pochod
▁gather
▁Hou
elt
zm
ე
▁Carlos
Properties
▁presentation
▁controls
▁cheer
▁consum
▁Ruth
ched
}}_{\
▁repub
▁Audio
etten
њу
овин
▁lan
atan
▁melhor
language
▁ko
▁Define
THE
iller
▁програм
▁ratio
용
Oct
inese
▁datasets
verte
▁információk
▁finan
▁wounded
Language
▁`{
rend
Material
pos
▁DO
Effect
ель
imately
dro
▁przeci
▁likely
▁Hart
▁effects
▁Tow
deg
filters
▁cards
таль
Setup
entr
▁März
▁Spec
▁norm
▁homes
▁Né
▁fixed
▁arch
▁мор
Are
ible
äg
?>
▁lac
rän
▁alignment
▁Mant
deutsch
▁coin
presa
In
▁gior
▁laten
arina
▁filled
spect
чные
ish
▁ignore
▁allocated
т
▁пр
ounter
▁gang
contents
EDIT
ant
▁sync
▁Formula
▁contribution
▁Amt
▁чемпі
iz
▁sj
Os
已
catalog
▁ligger
udad
▁bed
wię
strong
дой
iella
▁Schul
▁throw
▁principal
▁priority
▁Resource
fd
olog
▁singing
ске
dc
art
▁Aqu
unft
▁[],
uvo
vd
xim
▁arms
XX
▁advantages
▁tip
▁Shah
▁Einwo
▁Kl
etzt
iii
▁cig
anda
ходит
▁México
▁Ке
uvud
▁чер
▁emails
aka
▁noble
▁cave
zá
Components
▁następ
▁Have
"}
▁Chiesa
nik
▁Eg
ต
▁opp
ack
▁static
▁первы
▁footer
LY
▁said
▁stating
▁luck
кол
▁Representatives
å
▁cannot
Ľ
metric
▁im
ologique
<0x11>
getInstance
▁Spo
~~
'_
▁твор
▁Aless
▁catal
зне
▁centrale
▁poł
"];
▁cover
ölker
▁быть
▁дов
▁elements
▁apply
ς
Script
struct
▁execution
▁hundreds
HL
▁whatever
ichtet
Pad
▁família
▁Schwar
лага
runtime
ју
▁gehörte
▁depos
elements
▁norte
transform
▁Zug
▁reduces
否
▁site
▁werden
nete
▁logo
pol
▁died
▁superfic
▁Notes
▁ende
сі
eres
prevent
▁repositories
▁еди
▁Kru
alus
▁FB
면
▁dread
▁eyes
▁Cultura
)\)
ikon
▁pair
▁ста
▁critique
anci
▁international
ก
▁ké
etta
▁Guardian
▁rend
Handler
{%
ottom
▁Is
oret
лон
▁кате
ови
était
▁youth
▁invoke
ului
▁ric
definition
sers
esota
▁granted
▁cabe
▁Mason
▁happen
inals
▁but
elian
env
Ass
form
ct
▁upp
▁entre
ствии
Capt
stand
▁senza
infty
ა
▁qualified
▁Укра
apped
▁pas
▁host
haus
orial
рода
▁()
сс
ём
▁gem
▁Dec
▁importing
▁că
▁ol
You
iod
▁Cra
ských
▁Kill
▁deport
▁income
URN
▁originally
ných
▁explic
▁answer
▁precision
▁Mario
▁de
▁sites
▁angles
quit
prototype
▁di
fx
uns
long
oreferrer
by
S
ån
▁Rom
▁pandas
nant
▁tracking
ories
▁decor
!=
▁atte
▁Mah
coli
каде
ί
▁россий
aty
▁Server
itants
ær
elo
ido
▁tiny
▁Ана
▁ehemal
▁De
asm
<0xA0>
Move
pn
▁tema
▁Giuseppe
roe
▁Use
invoke
віт
▁moth
▁xmlns
inental
▁send
▁approved
▁via
.:
grep
RelativeLayout
que
enu
▁miasta
도
adratkilometer
▁Ó
ạ
▁foi
human
)&
Account
меня
Ú
▁Historic
erem
uce
mans
▁Youth
tek
▁Haw
where
▁navig
ности
▁intermediate
Component
former
Ħ
раз
aped
下
▁often
▁mujeres
▁Journal
▁Mis
cé
лении
Ó
▁situation
▁estadounidense
▁été
Style
▁Due
eter
▁poi
▁étaient
▁Furthermore
▁sr
walk
zony
sert
unter
▁laugh
▁retrieve
▁benefits
овано
plate
ellen
cnt
пара
good
app
▁Local
▁lugar
eqn
imate
▁Dub
arna
▁rain
UserName
▁sorte
archy
▁Тур
<0x88>
▁major
▁ха
▁holder
xter
▁przez
PER
▁ост
Emp
▁agua
RES
bounds
▁school
ientes
▁came
▁bor
▁reported
▁przed
▁побе
ino
named
▁Ku
LT
ernel
oly
▁Mort
na
abhäng
▁volont
Pointer
igger
▁excited
▁plugins
oli
por
▁daughter
мена
Right
▁optim
▁patch
initely
▁introduction
到
间
rit
from
▁esto
ються
▁IBM
▁Train
.: 
ígen
▁Archiv
ss
▁Pu
Split
▁Marse
yman
▁luc
дар
wiąz
▁rappresent
ury
nown
▁expanded
▁différentes
hash
cus
<0x40>
▁ří
▁Ins
▁Histor
▁out
AP
▁ба
▁arm
inf
ibr
▁formal
▁charg
▁deser
▁Mountain
▁kommt
▁Matthew
▁nab
widetilde
opro
msg
▁dici
iw
!/
▁pret
owned
gerufen
▁<!--
irse
▁Wend
ńczy
$),
▁claims
=
рал
▁Stop
:--
▁petite
▁dział
чё
▁Forces
▁siendo
び
▁teaching
▁další
▁piano
IS
▁pre
▁schedule
AM
bul
▁independence
✅
<0x56>
ossa
‡
▁Ri
Lat
▁ip
▁favorite
";
checked
▁Driver
▁Window
▁Metal
бір
▁air
cono
▁Taylor
orsz
▁image
oty
▁driving
return
▁prepar
rin
ἄ
▁reach
▁Salt
geo
DEFAULT
▁Top
▁Via
▁man
ing
unct
▁Hey
▁CC
ного
▁females
últ
▁excel
äh
```
▁NEW
нан
１
ground
athedral
▁bg
▁Musée
▁square
▁Fou
▁"</
lage
programming
cycle
less
SERVER
kt
▁sud
sson
▁Sto
%).
▁Kingdom
Eng
▁Manh
▁unfold
▁landscape
▁una
▁cela
spr
▁così
▁Lee
▁oscill
compatible
▁sale
!(
ounced
'
kon
igue
ened
▁tierra
▁Additionally
▁Query
▁blah
▁!
iginal
<0x0A>
▁'')
▁Leist
▁theorem
▁splitting
打
▁NUM
▁ž
▁Kot
▁nich
erna
ided
sorted
rs
ony
▁function
rile
▁Pred
▁febrero
▁Admir
useum
▁orch
▁eerste
▁bless
loads
<0xBD>
▁XI
▁Notices
Cy
▁secret
}})
▁left
▁Firefox
▁Mary
Hol
ames
aqu
▁godine
▁Pam
</s>
▁legit
▁reprezent
▁juin
▁lut
emat
cera
hora
▁flying
▁Ca
▁Sebast
君
egin
▁ami
▁dla
▁április
▁PC
god
▁dans
▁assembly
min
refer
▁Serv
▁è
▁featuring
kind
▁Liv
▁[(
▁ju
▁Vic
▁altern
▁Ад
état
▁tales
child
▁prize
▁Hmm
▁Labour
▁gestion
)!
ânt
▁выступа
▁$("#
dp
öl
enen
ében
eln
▁costru
▁круп
▁gebied
Ь
HE
യ
▁inclu
▁mesure
GE
▁(\<
▁Racing
NG
▁siglo
construct
▁confront
ḥ
Support
▁parish
▁эк
▁keine
▁sí
deck
▁protagon
▁ri
ritz
ize
gan
machine
rinningsområ
ugno
pm
▁gu
▁Mac
付
▁MA
▁Le
▁PL
▁magnitude
▁dri
halt
afka
▁территории
▁Pent
ச
▁exist
Dynamic
▁пов
▁fabric
▁club
▁Lok
сть
▁deep
▁externas
itu
▁имен
▁Nav
▁Гра
istique
▁Ser
itud
ũ
ually
▁Nether
▁janu
▁Regie
▁oder
▁jar
▁belonging
'.
боль
igkeit
▁Pere
▁oppon
ocracy
IOException
stab
▁initialized
▁занима
ext
дей
thes
êque
▁trans
▁жовтня
cu
▁ER
▁roz
ices
▁File
isme
▁alguns
цем
▁Staat
▁af
▁Firebase
▁Revol
List
pmatrix
▁Rak
юз
kn
▁mehrere
мана
ference
erset
▁pů
▁officially
▁prominent
qua
htaccess
▁pit
▁Pope
WT
atience
rass
Details
▁glad
▁siguientes
▁ainsi
两
scripts
▁Physics
enk
▁тео
▁Pet
▁tile
▁occ
latex
▁stone
▁Django
▁einmal
▁mis
кор
义
arding
cer
cuador
▁Fam
Limit
Rot
प
TagName
▁város
po
▁functions
Select
▁prevent
bum
▁bas
ณ
▁Ide
▁última
ste
enso
▁partido
Family
▁лютого
▁./
Х
▁OR
▁profes
èt
antry
роди
Animation
ピ
▁maggior
▁kole
▁od
member
oped
джа
urban
▁todo
▁deal
▁...)
▁padding
▁cycle
▁=~
lemma
▁Unit
▁е
Cont
▁Odkazy
▁Shaw
(.
rence
ucha
張
▁geb
▁{"
▁Item
ibm
▁челове
bold
▁friendly
▁\]
ׁ
pod
лії
▁whenever
ój
▁factors
onto
low
yrus
häng
▁Spanish
▁understood
▁−
▁położ
▁continu
Ver
▁line
ipped
dark
▁decent
um
ows
stad
▁revers
bben
ską
ského
▁deve
▁Cent
}=\
comple
ugs
▁testim
▁revel
▁мето
▁necessity
न
▁',
immer
eler
▁automatisch
▁absolv
ours
▁constants
AE
▁soon
чение
phone
▁gradient
▁fra
▁anderen
work
▁Logger
letter
▁Muslim
Dat
▁chose
▁tren
ем
▁Ra
▁fémin
hall
▁Phot
▁LI
mart
haft
astern
jas
▁rg
izi
▁estad
▁Чи
▁lett
▁dazu
▁prov
ven
▁Upon
▁nicely
波
▁sei
▁specifically
жа
allo
▁Kilometer
ícul
▁Arena
▁void
▁latitude
tuple
ному
legend
▁avo
▁February
omin
own
agnet
undo
subsubsection
⁵
▁encourag
▁remained
jure
jel
▁Bishop
▁wx
animation
▁уда
ൽ
ustom
atten
translate
.--
CLA
▁frère
▁George
nom
▁alloc
▁République
ʁ
ivil
▁messages
▁gift
▁cop
▁Rewrite
aspx
▁Much
▁migration
ViewById
▁вы
▁elections
kur
▁declare
▁Mid
▁thinks
▁screen
ická
▁gru
ctu
kreis
▁increasing
▁sink
▁vig
▁herm
ợ
agua
비
▁dw
organ
漢
.@
▁andra
eman
▁boats
▁robust
ícula
▁between
▁What
ṅ
fff
▁команди
esent
业
▁pobla
▁workaround
▁край
zt
izers
▁erste
виа
tml
▁speed
▁hand
TEXT
(',
heast
▁override
▁Bew
▁интер
лекс
fest
endpoint
═
end
▁présence
▁consisted
座
▁allows
▁miejs
▁ét
▁муніципалі
cref
▁Так
▁Collection
▁sympathy
▁derivative
▁tego
▁logger
▁Normdatei
meisterschaft
Replace
▁Disc
}{|
izza
collection
]$.
▁typing
ał
uez
食
▁Бо
van
ftrag
▁bur
Observable
▁developers
arta
ést
ono
▁Cl
▁Str
▁lin
▁deput
dated
▁captain
▁Club
▁Mannschaft
▁Card
▁Rect
▁JQuery
WD
[$
ј
▁cur
textcolor
even
SL
▁situé
▁Wars
ppers
essed
▁scal
endor
warn
▁owned
▁europe
Year
▁Answer
▁core
▁quale
reshold
тета
▁alcune
ностью
▁day
atalog
izon
▁intitulé
▁мож
vat
▁supposed
▁час
airs
▁Lud
▁belief
▁Coupe
ouverneur
▁programming
▁decid
oups
?”
ŭ
▁$-
▁всі
odn
дин
erte
im
▁flu
тки
▁aveva
▁cookie
▁Sommer
▁environmental
민
но
▁regard
Stats
▁variety
ieux
▁celebrated
▁kön
github
▁а
term
▁trace
▁bereits
▁ö
)..
retch
mande
▁safety
▁advis
trl
▁Aw
▁anyone
office
▁_
▁suggesting
<!--
ET
TL
Ord
Si
▁Resources
▁Internet
"><
orio
ViewHolder
ո
改
âtre
▁Heart
{`
uellement
▁rac
▁leads
Weight
lipse
core
▁inser
▁rm
ћ
став
▁retired

ained
经
<0xCC>
yll
ী
categories
▁цього
▁mort
icus
=$
▁keeping
Circ
▁rod
esser
◦
ческой
sup
▁watching
▁NASA
▁пси
▁europ
▁sede
▁en
▁destru
formance
▁públic
nier
▁cél
ö
lahoma
▁symmet
imm
iez
tober
▁five
Pres
Β
▁Kaiser
ствие
▁dat
▁gest
;}
who
result
Chain
▁dense
▁defend
▁Dav
교
▁Volk
Config
▁Audiodateien
ències
▁tussen
▁Jugend
schein
უ
▁Google
bool
▁bland
CASE
~\
°
▁Jerry
▁Egy
▁sympt
▁contre
Picture
linewidth
▁ext
филь
Of
▁prof
▁red
▁]
umbnail
ningar
▁works
FD
▁directed
▁Ps
▁potentially
▁dioc
▁n
lg
scale
чни
ried
▁Sr
ды
▁curs
း
▁Perm
antom
ius
Token
▁ML
aging
unwrap
move
母
▁Mitch
▁Grab
location
ction
▁zij
gl
▁strong
question
▁alt
usement
élé
間
ikor
▁neighb
▁Country
▁teach
▁elementos
д
vier
ген
▁nationale
time
▁racc
▁apolog
ursor
▁expects
Mobile
▁forb
Secret
▁Instit
vn
non
ого
embro
▁puede
permission
*(
▁artists
yclerView
Sequence
zed
ifiers
uid
quired
▁Отече
rect
▁Besides
▁Pas
▁dv
▁Replace
▁Halle
istence
▁tri
▁China
upper
▁Stewart
▁Bürger
map
ο
▁user
'])
▁Fried
Include
▁eliminate
.");
▁Pil
▁Turkish
▁through
NaN
▁END
進
▁програ
лев
▁elect
off
colo
▁Ар
uso
ive
▁...
▁Bayer
▁П
halb
▁woll
朝
▁&
ɑ
vä
▁historian
▁whereas
ş
{$
Unknown
Coll
▁pa
▁exc
▁Direct
ван
▁Bak
▁salv
usta
▁Jon
aga
▁CO
▁opened
▁attribute
▁Lil
▁varias
▁Zw
}$$
abstract
▁Raf
continue
▁actu
▁при
default
шко
slant
▁opacity
െ
``
▁try
▁біль
Ə
▁didnt
esian
rument
ety
▁buttons
leq
▁hospital
▁carri
fare
\<
▁calls
զ
▁cho
▁Мексику
":{"
.[
▁candid
▁sender
▁typed
ité
Word
幸
йн
uß
ześ
▁discrete
▁ens
▁amerik
▁definitions
mlung
▁Steven
session
▁Susan
atrice
▁extends
▁hell
Const
▁Чер
▁varios
▁décembre
▁envi
ym
▁jej
▁femmes
estaur
▁flush
varchar
resize
▁fá
云
▁page
well
atform
▁ArrayList
▁тан
▁entitled
▁uno
ava
цент
陽
▁esp
Interceptor
ak
▁voz
stell
▁forgotten
官
<0xB8>
░
LENG
▁setContentView
▁requiring
****
dire
▁personnel
CAA
▁Maurice
training
▁dah
▁votre
bitr
))))
▁MO
▁jul
▁Mie
dienst
[@
▁Sn
▁SK
tt
▁vier
▁укра
▁mixture
▁Kirch
compute
<0x48>
▁midst
▁ancient
kmal
▁су
▁Dev
▁recommended
▁česk
\).
it
ках
▁HashMap
Pay
▁monitor
▁Mass
<0xB3>
Dictionary
volume
▁waves
▁compte
ément
▁Brothers
yó
cra
▁sec
Files
▁mine
irtschaft
▁Sig
▁Township
simeq
▁mak
Classes
Footnote
▁Frank
▁wsp
urd
abet
eters
▁июля
GT
▁квітня
hib
BeanFactory
initial
istry
module
▁input
▁Ban
stellen
viders
матиче
▁виде
âr
五
庄
▁dialect
▁delet
▁▁
ouvert
▁convirti
▁entities
▁integrate
park
orgen
▁Wo
elm
▁announced
ല
▁arrays
▁mellan
ड
ố
rior
Arm
ności
▁allerdings
▁términ
▁wirk
̱
▁atac
▁departure
зд
▁изу
▁ED
▁сре
▁Royal
ponse
▁bugs
мей
▁servir
▁DB
▁OP
▁францу
ald
czas
lés
▁thousand
▁firefox
cot
aba
▁вели
র
▁for
product
Ag
actly
▁като
▁close
▁Mul
}
▁curios
aus
制
▁provoc
▁elem
宮
▁Department
▁Bab
_{-
▁Venez
rab
▁же
▁hearing
▁differ
▁Hollywood
LL
▁Chap
▁Jud
▁compatible
could
send
▁alk
▁incor
Der
▁vertical
five
emit
\",
▁vague
▁Между
▁Fal
ńskiego
FileName
▁Mississ
trad
▁familie
▁vu
▁vector
optera
reh
▁Meyer
ktet
▁remote
▁observer
▁Movie
▁să
▁Gill
▁Mutter
▁Mississippi
Git
bg
▁architect
▁externe
Intent
▁external
ifer
▁invari
щая
entries
gon
▁ambient
▁{@
locked
세
period
里
Mem
ound
▁Operation
▁ble
▲
<0x7B>
äll
▁compared
!'
▁Atlantic
▁fix
▁Brandenburg
东
▁Alexander
▁Straßen
▁diretto
emb
▁perí
ACTION
现
מ
Vert
води
tod
тва
▁measurements
ML
▁anglais
▁Dokument
▁Об
▁Left
▁indeed
пан
yal
shadow
ords
лові
语
▁oft
▁mv
▁tender
centering
▁endl
adesh
李
▁nacional
▁complement
▁Ál
enkins
▁Harold
▁систем
ito
▁dim
▁ciutat
isis
▁lambda
quin
▁Ру
▁purchase
▁ast
cció
ble
des
▁easy
▁lived
<0x65>
▁Complete
uration
DOC
Ť
▁being
laravel
носи
物
▁instit
▁LaTeX
▁White
▁Turn
▁Mouse
▁Massachusetts
▁$(
▁Inn
▁kall
▁assemble
annt
aux
air
^\
▁peu
город
ľ
▁json
(&
fab
kafka
▁Clark
▁Job
▁reasoning
reci
,(
▁Dublin
кого
▁technique
▁Platz
▁quantity
▁Estado
ето
▁julio
mun
▁nau
▁выпу
/>
▁approximate
▁Commonwealth
▁femin
jekte
▁signal
▁Como
▁había
▁Services
▁quart
SBN
▁Marcel
ählt
▁arquitect
▁satisfy
▁Iter
System
▁ч
∑
▁+\
▁seule
bio
Del
ança
fér
▁Pir
▁marker
kund
▁Phys
SW
▁runner
▁Nazionale
▁residence
ビ
▁Davis
▁estate
▁Thompson
ńst
▁qu
▁название
▁People
▁Pictures
þ
հ
▁County
IA
Union
去
▁kult
▁счита
▁O
▁sociale
▁Associ
▁sezon
▁both
Daniel
tab
uclidean
él
▁ways
umen
▁Broad
interval
▁teor
▁cert
▁Pen
)*
arde
¥
W
)$,
▁consid
ći
▁multi
▁speaker
лиза
▁Ав
<0xDF>
▁successfully
電
▁Din
▁смер
]{
final
▁alors
ച
pdf
ade
werk
{(
Deb
nbsp
хі
▁absolutely
client
▁blocked
▁fourth
▁F
âteau
▁temple
ору
öder
▁деревня
How
wel
APP
▁него
ária
▁rotation
▁район
▁eig
ria
▁repres
ignation
мет
▁*/
idenote
▁Rece
▁injury
itive
▁Außer
▁marqu
compat
▁Johnny
preview
ภ
▁zwei
ocation
▁Central
nats
вання
▁жен
▁corresponding
▁weapon
▁Jay
ears
helm
stoff
ほ
▁house
▁premiers
▁joins
рак
▁міста
anguages
▁versione
schrift
北
清
▁são
árs
क
▁Ту
san
ponder
iction
HOME
()
▁expressions
▁performs
▁Yes
boBox
",
▁mic
▁IS
▁lands
jed
addle
amy
▁voices
<0x7C>
▁breath
nde
▁данным
▁calculation
sterreich
▁powers
Collect
}(\
▁україн
ény
外
▁Start
▁John
utely
Names
|^
▁публи
▁discussion
▁Request
detail
▁all
cean
orr
ieg
uted
owych
rov
▁rarely
ente
pection
▁Gött
▁spre
▁sul
▁tutte
▁conocido
▁Zobacz
▁shouldn
mutable
▁público
тами
▁rect
▁Ward
▁fitted
multicolumn
▁amery
UI
es
Attribute
▁(†
▁graf
pub
▁Details
▁reve
bundle
▁род
▁]]
?
▁careful
сло
▁comenz
▁Gilbert
関
▁Dynamic
▁Бы
isseur
≃
illé
зу
Str
ével
▁"^
▁Sunday
▁Bomb
île
eduler
<0xE1>
▁Ok
▁ak
età
▁которой
cowo
paper
ença
\;
▁december
▁grasp
▁$|
geq
▁waar
('\
RY
TT
▁times
ễ
asta
Choice
▁acting
▁reste
Password
nel
▁clause
agine
ama
▁alcuni
sub
▁Pok
⟨
▁Zh
▁SW
ната
aign
▁uninstall
DateFormat
▁exception
▁cyl
mediate
ISO
FLA
hlen
▁kam
▁ned
heimer
▁finding
▁bajo
▁Politiker
▁spawn
éric
▁Diplom
▁implementations
his
▁follow
▁Фи
▁locomot
igneur
v
时
onom
▁över
чка
lika
дий
IM
▁evalu
▁Rein
мо
▁Classic
▁relatives
Selected
co
ührung
计
opacity
pisode
olo
▁innov
ро
▁analyz
řed
crete
▁différ
ymen
<0xEF>
▁referring
fel
PG
érique
ʾ
▁queen
▁Engine
▁Voir
航
\"
push
ulk
ñ
äter
clipse
raum
führt
▁Try
▁Secret
▁fútbol
Delete
▁programme
▁resolved
▁представи
mn
email
▁Meg
▁Auch
los
▁formerly
▁against
▁Framework
▁classic
terra
▁ced
тор
irth
нцикло
▁recomm
▁Description
cience
▁videos
▁Rob
chant
▁walls
ulla
ella
▁cinéma
▁Voll
▁setup
▁geometric
▁Martin
▁gewesen
▁ме
▁уні
▁chip
▁incident
算
ового
router
unes
kten
nius
▁count
sterdam
▁parser
ènes
▁Stim
краї
uby
▁privileges
ftp
quip
▁Dark
▁розташ
舞
<0x30>
▁locale
abor
▁partir
▁rang
Column
▁cinemat
▁internet
▁Би
▁Writing
!\
▁`@
али
▁javascript
źdz
в
▁Francisco
▁Han
compile
Đ
▁Colleg
pio
▁sierp
▁organization
<0xF3>
▁Це
▁swap
CLI
▁terminated
න
▁års
▁Mich
▁equipment
▁CURLOPT
育
▁#>
▁divided
eff
тах
▁честь
▁slowly
▁Oracle
Mc
K
oz
emu
▁EP
▁make
▁data
ம
bo
CTION
space
▁mism
▁género
▁wor
▁equilibrium
☺
oman
▁printf
▁Arts
alles
▁ids
▁SELECT
▁massive
▁Sec
ные
En
▁retra
▁Со
▁Phili
anch
Ṣ
▁på
▁Пу
▁Donald
world
ières
ʑ
カ
▁estab
▁Sit
Touch
▁such
lim
bat
[]{
删
▁offered
cco
▁partici
愛
song
▁potential
▁Ain
izing
ould
aran
▁Bernard
▁Дру
▁campionato
▁Entry
Bob
▁Schles
▁Demo
▁Output
ẓ
▁posterior
call
acions
frique
▁Was
▁glo
▁concept
стю
ката
dar
▁Consultado
owski
/'
wards
istics
▁Where
▁ending
mess
="$
ics
rique
лена
▁приня
PN
olt
▁Fem
▁Back
▁chim
▁wp
itting
earance
ک
yer
Public
▁sampling
mapsto
pped
▁professional
▁Ш
alled
temps
Sa
▁Az
events
olu
▁latest
▁dub
нет
▁Ur
▁sensitive
▁mieszkańców
ada
зиден
ografia
selves
【
▁Pal
È
ree
weight
▁Import
▁Night
vl
▁punt
▁comple
▁unos
шая
▁continuous
▁life
predict
▁раз
▁Custom
component
▁percent
ei
áj
,'
▁thick
▁статьи
▁layers
▁erw
文
serve
▁zb
▁sido
xhtml
Descriptor
Lar
lave
program
▁ng
wagen
<0x46>
▁Mitg
▁когда
rios
rak
▁стали
тали
▁old
ни
▁simply
Brush
入
▁Gran
]`
gor
zef
kel
▁difer
▁Fle
▁Pic
▁Conference
▁verschill
leading
▁Warren
▁recensement
โ
per
▁regarded
quier
fixed
istan
▁beach
Received
ége
obar
emor
ault
▁solo
▁responsible
▁radi
▁första
▁deli
▁deployment
ан
▁rather
▁mm
typeof
▁ds
▁staff
▁ihnen
▁custom
▁tudi
▁Gust
verband
深
▁Ke
zysk
писан
([
+'
▁serving
▁NA
▁niet
Any
▁condado
▁statue
ihe
▁genu
▁Camb
tac
▁Rav
▁Д
ogy
▁Lim
▁objet
▁Хо
eground
Γ
▁fleet
▁intent
ність
ști
▁everybody
▁Official
iced
▁curious
▁Daniel
▁Fant
▁comp
▁мини
▁Music
▁mère
▁страны
images
県
wik
ві
acco
launch
▁Nur
▁Tools
▁flor
hex
▁queries
="${
leton
sed
Г
вать
▁Norden
▁daß
▁Britain
▁DES
atomic
api
▁initially
▁newline
▁ind
itemize
cie
▁fifth
▁Vir
Om
archiviato
hit
▁Nicol
zeit
▁genannt
▁gcc
Dan
nett
////////
urr
contr
▁elaborate
DA
▁дере
▁Add
ктив
▁cant
▁Occ
rooms
▁сбор
cn
hostname
о
▁Nor
enable
Security
▁continues
▁tells
▁fixing
rodu
▁assumes
reu
However
▁lying
▁Mrs
化
▁employees
▁Congress
спе
▁Hamilton
آ
「
Mock
▁associated
weise
uning
elsen
Pop
▁Ada
▁monuments
▁т
▁Bibliothèque
bal
郎
▁Narod
draw
ium
▁Cette
▁Epis
\|_{
▁déput
Route
FFFF
inds
▁bridge
▁над
Args
▁utilis
▁Yang
...
▁festiv
▁cent
の
▁conducted
žit
DF
ické
▁dello
Alert
ema
áll
▁`[
ト
].[
olds
▁Note
▁keen
GN
▁groß
▁проф
rais
▁Fix
domain
fp
▁ag
▁practice
down
Counter
▁hes
▁accessing
▁период
uttavia
▁Ru
▁dise
limp
organisation
▁Pri
▁Inform
发
▁Touch
Value
▁hombres
ild
laus
▁dru
▁Über
▁цент
▁TE
▁Bibliographie
major
extensions
▁fotograf
▁|\
▁Anal
Архівовано
成
▁contained
▁sat
fahren
={\
▁Ich
mx
eszt
failed
▁zv
lande
泉
▁vois
Don
vid
▁And
▁уез
▁know
acity
▁appropri
raid
▁as
▁Acc
남
ŝ
obile
▁displaying
mult
▁:-
▁movements
pper
▁uniqu
$).
сну
nabla
erman
ір
perty
}+\
eh
ਿ
cers
▁assum
▁сем
▁мая
cert
▁Von
▁prot
▁seria
CT
▁seus
Thanks
("/
▁ließ
fonts
ring
▁concern
▁Ath
▁vocals
ucion
ním
▁groot
▁LE
▁display
être
reme
▁aws
gem
▁ferm
▁presso
?'
endif
ME
ren
▁syst
)-
ři
▁dangerous
▁similar
▁können
enç
ere
▁`(
▁login
▁ще
▁verbose
▁ann
meck
▁med
MO
▁reboot
아
▁volunte
▁PRO
▁Hur
▁commands
▁otten
▁comb
▁Manchester
▁T
button
▁war
attach
ème
▁meteor
ERT
▁ter
址
▁Milit
*)
<0x50>
▁TV
<\
зни
▁mus
▁extension
Oh
faces
enty
▁Revolution
▁großen
ctic
▁fake
▁sacrifice
f
▁bottom
Video
ɫ
inture
▁SC
▁begann
Required
▁supporting
▁CSS
▁displayed
World
¤
<0xD0>
▁'_
▁поло
▁Види
▁Johann
▁FR
<0x66>
▁Ed
enburg
▁Settings
▁appearance
azi
▁Mem
▁Spart
undle
ulative
ques
▁AWS
ToList
▁correction
Δ
iana
▁pe
▁Haut
比
Something
▁intervals
я
adem
書
내
▁mij
▁~[
▁Poss
▁Georges
▁finger
▁leb
▁access
▁Summer
rows
▁österreich
▁cambio
й
录
кий
▁могу
ilis
드
foot
eign
▁garant
iture
bbe
▁affair
▁besonders
ürgen
olph
▁kül
▁inve
的
ulate
▁subclass
params
ை
▁Histoire
▁jobs
ral
▁Zu
▁---
▁convent
eb
▁spite
▁Gand
That
▁<!
▁Mau
▁Ach
▁sky
▁Bog
▁poetry
нологи
edia
ista
transaction
irus
▁att
▁Nat
не
‌
希
`?
▁individuals
▁recip
‚
藏
▁gain
agem
▁RET
▁Tw
▁`/
▁circumst
▁alem
▁genom
ew
uli
▁handle
ti
▁Поль
ämp
▁touched
ഷ
ရ
iest
▁ret
onde
▁стан
▁Kan
лення
▁€
After
▁conclusion
зар
Term
▁Overflow
ту
▁aligned
▁queue
CD
Open
<0xD3>
▁Ital
odo
▁synth
▁spielte
atisf
▁Zel
nginx
▁mir
▁cette
atory
▁expert
rien
▁Emma
▁сі
他
ltre
▁Did
▁weight
ogs
▁veter
◄
▁studied
hält
).
▁gilt
▁conservation
▁Lam
site
antes
++)
▁susp
▁×
anha
aniu
▁econom
▁Haz
ล
з
The
enser
▁Medical
▁között
▁assumed
?.
▁Broadcast
models
rea
▁difficulty
▁print
▁зу
ong
▁í
mé
Users
▁knowing
▁Community
options
рос
resp
▁take
▁bird
Profile
▁Trad
▁GmbH
▁unw
▁sacr
▁C
▁crossing
▁Millionen
льта
tech
▁abs
▁grouped
▁indexPath
nm
▁}
bing
▁numpy
cius
vendor
Old
lege
▁dies
▁државе
ільки
▁mouv
ʎ
lish
ordon
▁Ej
▁eigenen
vera
riel
▁neuen
ippi
ος
▁райо
zug
EventArgs
▁Anyone
Init
mbox
equality
▁zdoby
ál
▁browser
▁grace
atio
ató
▁kunst
alph
itore
▁{
▁provinces
hoz
ország
▁Neil
▁Handle
▁Гор
ovi
▁H
▁....
▁inequality
Console
than
▁Circle
▁spe
э
▁zam
▁Cheers
---
▁Rib
▁Philadel
isce
aa
▁mai
▁revista
േ
anche
▁effective
▁Provin
iegel
▁Girl
▁assert
▁equals
▁siguiente
noindent
▁lud
▁Maler
icky
========
▁concepts
estra
▁Lied
▁fjär
жива
▁enable
▁funkc
рук
▁ouv
Pol
▁Costa
▁Yan
enes
▁specification
Null
▁abstract
▁tir
▁quot
▁К
ats
etter
alion
là
▁modified
▁мен
HD
дні
<0xF6>
unit
▁western
бю
▁start
emer
▁Baud
▁що
Builder
▁game
▁damit
▁swing
uous
Ÿ
<0x85>
▁Hob
▁обращения
NotFound
▁отли
▁Ob
▁Gemeinde
▁▁▁▁▁▁▁▁▁▁▁▁▁▁
▁come
~
ツ
▁Orth
IDE
SY
▁Con
▁Dez
▁жизни
▁ai
▁volume
hen
inte
▁Wild
▁joueur
▁Out
kl
deep
Head
▁restricted
▁Lebens
▁Rah
▁dead
Desktop
ROR
▁kind
▁saying
▁mare
▁invol
produ
В
NU
wire
▁opposite
pring
rightarrow
▁Mir
▁sieben
emia
▁ricon
▁Haupt
▁organized
Def
▁surname
album
ciones
wide
zyż
▁gł
LP
▁raising
에
▸
³
Brain
▁donc
▁Edinburgh
цу
▁Cover
▁holes
ugen
}}.
▁rub
▁vl
▁$
même
▁корпу
)))
▁side
Press
ič
ky
rum
▁Tennessee
allen
pf
▁kor
周
ois
▁Sports
▁jeho
ktiv
▁demonstrate
▁accom
ibly
▁lanz
sections
Τ
▁Creating
ends
ills
▁doubt
▁Av
device
acci
templates
运
PART
▁yield
▁tom
ἀ
▁regime
▁etwa
জ
▁pointer
мар
()`](
▁welche
▁fue
▁animals
ἔ
Plus
skih
...)
ા
▁NAME
▁spécial
▁tried
▁Las
▁combining
Tra
▁horn
▁planning
ite
▁нов
шп
Cursor
▁après
imes
▁Bibliografía
tera
▁eben
▁fileName
▁Francesco
4
▁stay
▁gel
back
▁caus
▁eer
▁het
}}{\
需
গ
ime
ктиче
ustral
ède
ché
iani
virti
▁periods
▁starb
▁stackoverflow
▁музи
▁trains
---+
▁тро
develop
▁thirty
▁With
anged
лим
▁Love
▁Gh
▁wür
inners
jes
▁demol
▁preference
▁styles
▁VBA
▁Airl
kal
▁apparent
▁комп
▁Socket
rei
▁registr
▁albums
ars
SQL
▁circuit
▁lloc
▁pages
rapper
rob
▁Alabama
avoir
▁comm
▁nivel
▁problema
▁zone
▁vote
С
-\
▁lok
EE
記
▁Герма
▁q
izer
▁сле
){
▁Hyp
apping
▁Virginia
▁Good
▁compar
ons
форма
edic
▁Republic
ữ
್
ifest
awk
lijk
TextField
isé
джи
сона
▁posto
▁pole
SI
ribution
стер
повід
▁button
▁då
▁(=
()}
rita
▁Bun
▁iPhone
reload
▁Diet
uls
▁customer
**
unity
▁kick
----------
▁Rel
inch
▁literally
íos
▁bis
nitz
▁Grad
ent
▁judge
▁boundary
zeitig
zw
▁oppos
▁ERROR
docker
▁pu
▁thank
थ
▁persistent
Boot
▁свои
▁audi
stdout
conn
Size
Proc
▁ap
orn
▁Ка
Graphics
⸮
▁•
'''
▁does
▁society
▁"")
▁Calendar
Wikimedia
pa
high
▁URL
▁титу
▁suo
˜
▁Hein
▁ste
▁ber
▁"...
<0x6A>
ler
elenium
▁July
▁drag
▁MY
▁passes
▁Porto
ltal
▁Bac
▁départ
▁alta
ám
.$
▁iterate
▁ки
▁erschien
○
<0xAE>
▁pob
fire
clar
рій
▁Mais
org
middle
研
ন
▁Guy
anz
Error
+)
▁Byte
ly
yj
▁Opt
ríguez
ils
("
annel
▁bundle
udi
▁biggest
▁Dr
ensen
▁Philippe
clic
férences
ften
icional
▁tricky
allenge
▁`
▁лі
▁zweiten
▁dece
IZ
▁Alf
oten
ць
лови
irl
▁Sans
▁derived
▁Нау
▁university
▁linking
▁March
unal
▁Kult
▁caracter
iam
ū
▁“
▁civ
▁mutable
▁explan
üt
▁cuando
oker
prec
></
▁Offiz
»)
▁beyond
▁още
uffer
▁Scottish
▁Knight
▁Champion
▁founded
▁Mih
coln
▁alarm
▁arrest
▁через
▁largely
▁circumstances
▁readers
▁alc
Invalid
As
added
▁straightforward
▁treat
публи
▁Глав
testing
志
▁право
▁Pac
release
ociación
▁Om
jih
▁deutsch
▁"@
Hom
▁discovered
лі
timer
наль
▁Май
▁duas
_
索
тан
ação
▁bild
▁va
=\{
чей
тер
Pager
nahmen
▁above
▁effet
oved
▁indep
▁Inga
annels
arth
arus
<0xF7>
▁timestamp
urus
▁rappres
▁NGC
▁Nicolas
▼
bottom
▁sus
–
inho
ньо
▁Trade
▁Jules
Ř
ḏ
стов
▁Clar
▁constit
ტ
system
któber
щения
вобо
зня
▁Alert
uras
▁are
▁Season
高
▁Call
╌
enn
hov
bor
▁helpful
itsch
語
lam
▁verf
▁nous
▁Gustav
rypt
<0x02>
Am
contact
heit
<0x63>
Saint
▁Edd
▁seulement
Fig
▁Externí
ources
Comm
▁mi
▁располо
▁lassen
佐
ськ
Generic
▁yellow
野
▁Mal
谷
2
mo
Transform
▁running
▁War
▁date
ensch
tot
▁Una
short
▁Chal
▁([
student
ź
special
'):
▁има
▁authorization
Alignment
lide
}{(
care
▁CG
▁wis
気
љ
gende
éd
lus
ською
▁p
hole
P
▁conventional
ന
▁Saturday
ede
их
Sync
itis
▁vere
nię
▁Kont
oup
ef
ensive
▁tea
▁március
▁Singapore
▁Sub
▁Lind
PRO
CF
;`
agn
%)
▁reform
packages
▁pale
▁scene
ware
▁Fur
▁Jó
FAULT
idge
▁Hels
测
▁snap
▁Zeit
!("
Sound
▁So
▁persona
ouri
")
▁Hannover
▁Bod
)?
수
ician
▁Cam
wie
Browser
ม
▁Дж
izzata
▁Prozent
▁cols
inea
▁IX
owania
广
Trans
ズ
▁useless
▁aware
pet
<0x0C>
▁questi
▁[]
▁Hab
ghan
▁pm
צ
uge
▁obst
->_
▁phr
error
ONG
network
▁Polish
vue
bol
▁gef
▁Geb
villa
kir
Set
▁Console
▁divid
▁nebo
Modal
▁Евро
▁However
stvo
▁conqu
▁familjen
▁events
▁bronze
homme
▁clust
Hidden
▁Zahl
iros
Middle
▁concaten
▁figure
▁Zealand
▁forall
▁Hence
▁Verl
Min
▁},
▁Rec
▁años
issen
▁Version
▁Guide
▁participants
▁ули
▁Graphics
%"
school
beans
slide
▁Jas
)}{
▁=>
Cal
▁paid
Wh
▁prés
▁Option
VALUE
Life
Մ
▁realiz
rache
▁mie
сторія
▁compla
▁Пер
ruby
▁estat
chev
松
▁Anyway
▁extensive
▁però
▁Scient
▁"-
▁amazon
▁representations
▁Kreuz
pag
▁arrangement
▁poem
▁docs
▁runtime
▁classification
▁adm
umi
▁Convert
▁smoke
▁surprise
▁vulner
▁character
▁conclus
$
样
rivate
itter
▁Woj
building
athed
▁Hal
хра
▁ně
▁marry
反
лях
▁Label
тек
▁equally
▁который
▁association
▁Pia
▁pis
utive
▁lifetime
zec
теля
郡
▁Schweizer
ά
▁twice
osing
▁integra
CK
Õ
ousin
CHAR
_"
▁Craig
▁sia
▁entered
ク
▁способ
ien
Well
▁ts
ы
нию
ientras
Serializer
▁dressed
рого
чная
ствует
▁invariant
oot
icut
▁столі
沙
▁familiar
▁Tal
▁pla
▁dist
▁dinner
▁huge
▁Ji
nake
Match
plain
jpeg
odel
self
messages
reg
▁kle
lez
▁contributions
▁communauté
<0x14>
zent
▁formats
ོ
▁blanc
ream
сса
▁cinq
ilor
$;
▁Reichs
▁asked
▁surrounding
▁servant
▁primer
eles
aje
▁convenient
▁Theory
▁bin
▁wants
▁пес
▁elle
itut
▁projekt
folder
ClassName
ッ
ន
lass
▁britann
š
Rep
incie
ḷ
▁ac
▁impro
▁manual
▁Einwohner
▁CHAR
>:
▁stores
▁animation
ण
▁declaration
Windows
▁Init
▁||
дели
▁Lü
огра
▁self
▁Policy
▁neighbourhood
▁contrast
▁своей
▁arg
--------
▁и
Univers
▁immediately
Body
▁ph
`;
}}=
▁studies
▁fils
ücke
ichts
]['
osta
▁соб
display
▁Bet
▁…
Ignore
+$
Kar
▁Kauf
your
▁disapp
▁Evans
▁algebra
}}}
த
кі
ître
▁dir
▁Unable
▁bata
amental
▁daughters
▁Wagner
▁hizo
▁plat
▁Blue
eed
Drag
▁Best
),(
review
▁Ontario
dirname
ogene
▁Lis
▁Constitution
▁Lomb
)",
central
orus
Sum
▁Advanced
▁tight
orphism
Dom
▁Vin
▁cens
▁supply
▁Swift
quest
 
▁Games
AD
:'
чных
iveness
)"
식
▁wat
ignore
overy
schap
achim
▁thermal
________
▁несколько
▁gab
erner
CONFIG
poss
III
山
Bas
Er
▁gl
ieval
回
▁staat
▁très
она
▁sometimes
rv
äck
使
▁schw
▁whose
Edit
▁Pear
ello
▁$('.
alet
▁з
OutputStream
klär
▁beautiful
▁länkar
hill
▁comte
JavaScript
▁throws
clam
∈
ique
tag
▁Bus
BL
▁Architecture
icro
onnées
ową
lished
mov
▁really
enti
Cannot
▁compét
unnable
▁binary
utos
▁Winter
▁Rot
№
TRAN
▁lider
▁stad
▁Festival
▁Ст
cha
▁декабря
▁warm
▁krit
组
স
бли
Completion
▁Selon
မ
▁Illustr
▁fore
Available
lder
▁Mike
Query
▁LIM
▁desenvol
▁direkt
они
▁{
culo
～
▁llev
Office
Logger
▁Ча
^{+
hr
onn
emente
plot
▁essential
MY
adata
▁revision
▁readonly
▁officiel
▁annotations
next
▁convolution
Each
▁им
mock
▁described
ż
▁prue
}</
▁її
ôtel
▁Split
▁Edit
success
▁tunnel
▁solic
▁then
▁cli
ansas
niu
▁ir
net
▁describes
nosti
)=
▁beskrevs
agers
cor
ograf
plements
mu
clou
▁sorti
(\
▁canon
}>
ципа
BF
mut
}\)
▁Article
▁represent
мента
archiv
section
▁refused
currency
▁lungo
▁remains
▁agre
▁Rain
effect
▁lit
dfrac
prüng
FX
End
▁insbesondere
▁Struct
aj
▁notion
ё
▁бі
Append
▁astero
TX
▁pairs
▁requirements
▁Finn
و
EC
▁guitar
▁facing
▁Songs
▁зе
▁ach
вали
cs
<0x03>
ology
▁Cour
▁Ron
▁quest
  
▁IO
▁Att
▁Coun
▁allocate
▁vehicles
ű
▁coding
▁dér
▁vo
▁monaster
head
▁Eugen
illo
▁Added
▁its
▁nieuwe
▁Austral
▁enthus
▁trade
von
auté
▁az
▁heard
▁després
izard
(-
▁;;
ms
▁Rout
▁imagination
bootstrap
▁civil
ktop
ération
nego
ɲ
zę
▁Util
WRITE
Scal
▁instal
▁Just
▁member
미
ński
城
က
▁llam
ichten
▁additional
Sk
▁брига
▁complexity
except
▁ката
Sigma
questions
▁Brit
▁рі
')[
▁condu
▁handled
▁field
Settings
стави
▁Herm
illery
First
developers
GL
▁ř
django
ember
▁Hir
▁Mam
▁wasn
▁combination
ributed
▁Light
White
cribe
asant
aser
querySelector
▁principe
ম
ával
\{\
setState
▁thereby
yed
itz
▁alongside
▁reads
blue
▁pul
niejs
▁wechselte
ungs
esen
▁стре
Directory
▁wait
▁mysql
▁Резу
SK
▁festival
▁людя
▁luego
дна
setopt
▁Bin
ert
▁разли
VICE
вид
rypto
ਸ
ṯ
▁rent
▁Vis
MS
ystycz
▁Dick
ER
ăr
▁grouping
▁Alo
su
SV
arz
▁assess
ფ
daten
▁imagine
▁Monument
▁gros
▁Дата
▁szám
para
txt
▁particip
▁rh
BY
alm
▁quadratic
$(
Lab
▁neces
)^{
▁truth
asp
▁Mo
▁sho
▁américaine
程
Under
▁logic
▁According
▁redirects
▁Rena
▁residents
otal
async
▁гг
▁Storm
igi
ES
▁nécessaire
▁cra
<0x95>
▁ara
Gr
limits
логи
▁reprodu
▁categor
▁sing
▁apparently
нение
▁zur
▁Lub
lit
idor
Primary
库
▁estado
лав
┘
▁newspaper
etes
▁Lamb
切
▁Dum
宇
▁ice
endorf
▁nas
раб
hind
nap
▁manera
▁papa
зько
▁Inter
paths
▁свобо
fon
ہ
▁gli
зии
▁db
▁Siehe
irt
Group
hmen
▁botan
Single
GS
▁he
▁полови
MODE
▁Fore
▁maximum
Ital
▁podczas
zer
▁Teatro
 
ckså
▁plusieurs
▁Figure
Flags
▁була
▁Sometimes
▁dix
▁Monde
▁women
▁parenthes
▁(_
▁sentence
ソ
▁Sel
▁ми
vis
▁despite
▁матери
▁яких
▁ny
▁away
▁setTimeout
▁vide
(`
▁Lors
▁geht
▁PDO
circ
▁scri
▁popol
▁Liens
▁saves
ṃ
batch
度
pton
▁Content
▁board
▁acab
▁Calcul
про
▁Comm
ĭ
▁component
▁bash
iver
▁importance
iji
▁ere
▁pour
$,
┴
here
市
гі
▁o
поль
omon
old
▁режи
ettings
pose
arqu
▁Edward
▁LCCN
▁std
▁Jews
▁струк
▁dynamically
▁noch
▁tree
▁Function
▁permission
ynam
▁Bass
▁insieme
▁съ
partial
small
amb
pull
ális
▁Jah
зан
Week
▁Ko
doc
▁wo
rece
▁modification
▁Beruf
▁Second
ery
euw
▁implementation
▁incons
"\
▁mètres
▁Süden
▁sign
▁verz
▁independ
▁??
▁tutti
subfigure
Good
▁ча
variables
▁vessel
fica
▁smart
▁Liberal
ügel
Focus
kiej
▁overwrite
▁She
onio
▁\
▁nunca
▁Erd
ській
atia
▁Van
▁beginner
▁Historia
icker
ateur
▁Georgia
▁ela
lu
▁розта
▁Bald
조
ocoa
бор
▁Sed
▁bere
list
Math
▁dedicated
▁coordin
▁approached
atoes
▁kommen
▁Od
Ù
▁beg
*,
▁laptop
uil
▁Hann
grid
<0x3E>
webkit
再
▁Jean
▁Sport
argument
▁Alg
▁Федерации
▁Austria
ardi
ktur
▁Pap
▁lift
estig
▁accurate
▁Cert
men
Team
ilo
acing
:@
▁Kind
▁Krist
▁tang
▁zunächst
textbf
stor
▁große
nal
gabe
▁nearly
▁hurried
▁Family
▁Nation
époque
utlich
▁denied
ford
▁Desp
bove
▁days
hören
▁border
olas
▁Henri
▁PMID
▁symmetry
žen
indow
бу
adas
ди
ünd
▁"""
▁interess
tel
Please
inet
▁commercial
About
фіцій
▁пи
ょ
가
▁Environment
▁Body
)
itul
▁viz
▁regions
▁vij
DM
atem
ional
▁wonderful
мп
https
,\,
ên
▁автор
▁atmos
ernal
ACT
▁dokument
icion
▁distributed
▁Mediter
Extra
▁ti
▁object
ғ
▁también
▁Ale
▁хо
fas
<0x7D>
lers
uca
ческий
галь
▁prede
▁funcion
oston
▁drawn
▁persu
PR
ken
▁Sum
▁sand
<0xC3>
▁orange
▁Renaissance
▁diss
undert
▁languages
▁considering
▁ej
▁Total
▁equivalence
▁boolean
ovis
▁Algorithm
engono
bad
▁rate
▁Wilson
ský
▁people
nome
rera
▁}\
▁curr
IVE
▁restrictions
व
▁predictions
▁Gonz
▁reconna
}^{\
▁operator
овой
▁Meister
▁Fre
▁topic
one
ША
▁heaven
▁ciel
:[
шение
▁Ash
▁native
▁prod
▁studio
▁ora
葉
▁Sele
▁encountered
▁checked
labels
Source
orithms
(_
▁enum
ность
▁Nom
licated
▁vessels
▁als
docs
▁Chile
Common
▁rough
▁sow
▁Lac
та
ù
▁importantes
zburg
▁Storia
Port
▁која
▁Я
▁Вла
▁Columbia
learning
<0x7E>
feed
szág
ة
arget
▁extend
▁collaboration
▁vast
▁ranges
▁Switzerland
▁Product
▁Vit
▁full
▁busy
▁tract
▁Police
局
ญ
株
dispatch
▁wenn
Do
▁Крас
▁categoría
▁readable
▁Work
omer
▁anc
▁ago
imeter
奇
▁Haus
▁Independ
▁haben
▁président
outube
<0x9E>
▁suas
▁spot
▁Cord
onces
駅
pse
▁neat
▁ruled
會
items
▁вре
位
▁morte
ichte
▁sib
▁militar
кра
▁Films
▁Амери
пере
▁meer
nothing
▁ни
▁raz
uchte
▁реа
▁engl
√
try
ioni
▁cher
▁uncertain
Λ
▁hi
bel
щі
тку
▁Can
life
▁broad
▁subsequently
uese
rict
▁Art
微
▁Theater
illaume
ied
▁sitt
▁téc
▁Бі
▁convert
▁Pan
вез
▁stre
dh
oter
perm
▁born
▁Vier
修
▁Mos
▁зем
!");
tip
elve
े
▁labor
▁ство
▁един
.....
чно
ifting
▁SL
rijk
fun
кола
▁verg
лением
▁compt
▁Silva
输
▁stars
▁synd
▁maintained
stackexchange
gy
▁Див
ане
vs
fal
▁Queensland
quare
▁hibernate
▁promoted
▁Whe
▁prefer
rene
▁représent
▁third
▁".
ASS
₁
“,
ombres
ocr
това
eller
ică
omp
datab
ா
▁rece
▁Ad
▁окт
cen
▁Dorf
拳
<0x97>
ymnasium
▁дости
▁introdu
fade
Vector
types
★
▁downloading
▁logical
▁photo
▁строи
ază
▁fer
▁empir
▁aged
▁cheap
Rel
erde
雪
tabular
ctrl
▁studierte
vy
▁Роз
asa
▁once
TeX
memory
▁Fellow
▁comes
iemann
hello
Free
станов
▁жов
func
<0x8F>
⟶
Sch
▁religious
ụ
EventListener
alo
resolve
▁годах
▁ди
ュ
Delay
рои
ɹ
RE
esch
▁Check
▁Theorem
isat
лий
▁^
шен
▁threaten
стана
erca
writing
▁svol
ieß
operator
rule
hum
ственно
▁indent
▁National
▁describe
orte
lad
aszt
국
▁fmt
▁вересня
usztus
()->
Dr
law
kow
▁maj
▁cub
▁Ltd
論
lon
▁Uk
▁moon
▁EM
▁loc
ouse
▁Jahren
▁Store
▁Gray
зик
хода
asticsearch
keit
▁aim
dflare
zeti
бай
backgroundColor
▁Hibernate
▁resid
▁authors
▁seek
aria
]/
▁meeting
nahme
▁neck
▁funds
▁jsou
cade
²,
FM
▁ide
▁constraints
éch
▁piece
▁mistake
▁typeof
▁ade
▁Ссылки
kih
▁precip
yy
▁plot
▁Hay
▁converts
▁node
close
array
▁properties
steps
▁Men
▁Camp
Part
Display
▁Norte
Orientation
▁library
icked
▁Jesus
ajax
▁seguito
nings
roduction
[]
▁complet
debug
lined
▁Labor
cape
▁protect
▁isn
▁Finale
▁medieval
▁cruel
mysql
▁Amer
>\<^
eting
rack
met
iny
amazon
▁anchor
Top
▁prison
▁боль
шой
▁Position
))`
moz
▁pon
cko
▁północ
▁médec
▁Keep
▁cantante
▁Stern
versary
▁cum
scr
▁farther
fin
ep
▁%{
ometric
▁pap
▁références
D
join
յ
then
yaume
Type
▁Barry
}"
Framework
aks
▁Хро
а
▁ost
▁Gib
ヴ
always
▁temporada
▁Saf
lossen
tait
Call
zos
一
iding
▁android
allery
SU
imin
▁habit
▁consult
▁três
Ο
¾
rical
anon
Â
▁стать
ego
▁трав
ounded
>\<
▁Мексика
▁law
▁Schne
urbed
ля
ー
▁пря
▁Education
▁before
▁bzw
▁zo
adrat
authentication
▁year
▁Gabriel
▁BEGIN
▁за
zeichnungen
ム
Load
borg
▁casa
ifs
Phone
'\
▁Get
ini
extension
лежа
)^{\
▁Kraft
▁believed
▁D
plugins
Rece
estr
▁Anderson
介
▁argent
▁Dep
tableView
▁Аль
▁colleg
▁най
ivel
▁Ю
▁Abgerufen
秋
ortheast
wd
demo
zat
▁vot
▁interrupt
holds
▁coord
rero
imum
boards
ственного
▁Di
▁means
ardin
▁regular
▁fal
▁nommé
ждан
̶
▁flow
▁spell
ifying
ли
▁only
<0xFB>
▁Global
▁Sad
▁Dennis
")]
jango
▁hub
Ã
▁dic
▁diversos
▁Meanwhile
ს
cp
ქ
▁rag
ATA
▁Lé
òria
▁partially
omo
INST
▁September
▁ladies
▁Glasgow
▁forum
▁темпера
▁dentro
כ
▁команду
ő
supp
ら
▁defect
▁Fail
ல
▁sim
bject
"),
▁understand
Bu
Month
Desc
▁handler
For
▁documented
▁också
adin
▁partic
▁Professional
star
iteit
▁wand
▁cup
▁článku
mark
image
emph
▁primo
аль
matches
▁resort
▁»
▁Ever
▁suis
▁islands
ových
▁jeune
▁Coll
WF
▁cri
▁directory
▁COL
▁Els
▁Einz
ي
REATE
vá
Mal
▁radial
▁feature
▁assist
▁manufact
▁fais
▁honor
Can
important
▁вос
力
роб
Hash
▁enf
umably
look
▁depart
▁cro
▁rail
▁Feder
////////////////
▁tensorflow
▁советский
<0xEB>
▁Mong
▁Michigan
nan
Impl
▁famiglia
隆
pair
adre
abad
▁führte
▁initi
▁shoot
▁país
▁ordinary
ópez
вший
▁consequences
лін
存
页
▁Luxemb
Button
Ill
idad
▁observe
▁interpreter
▁sheet
▁prisoners
<0x5C>
leitung
licity
▁ре
ugh
▁lui
▁belang
原
▁wr
▁pyg
ForKey
clos
izioni
ben
▁group
▁Eins
▁человека
▁Pala
▁intellect
▁Terr
▁rid
ubern
ano
▁performed
ît
▁Lauf
▁Forsch
▁accommod
▁section
▁Er
▁permitted
articles
▁CON
▁extrem
▁cust
▁intern
▁nécess
zyst
cciones
ByVal
▁prohib
iclopedia
фе
▁violent
▁receiver
u
Xml
▁sess
▁distributions
▁Кар
▁Nich
▁begun
▁fou
▁Ident
▁back
▁incl
▁це
ু
}&
▁magazine
periment
▁articles
ktionen
▁cc
▁‘
gers
▁register
▁horse
ligt
▁`%
▁Animal
forum
áció
▁respect
▁Heimat
ë
▁február
ardo
▁big
▁stress
external
irc
ื
xc
章
sible
▁въ
nad
▁Imperial
dagger
att
qq
▁wurde
cpu
▁finden
ira
bund
▁ubic
▁тер
▁hasn
量
▁robot
▁instead
Best
Scroll
Projects
Failed
▁eigh
Wil
▁median
▁Protest
Internet
agne
ados
sd
▁profession
▁timp
Subview
▁bounds
ording
▁candidates
▁reward
sequently
▁тек
▁broadcast
▁Digital
▁worry
river
▁ри
▁misma
▁loss
▁lev
рела
▁Big
▁ц
ywna
зма
парта
нва
▁irrelevant
▁intend
ika
Demo
▁британ
▁El
TABLE
洞
bert
Control
ѐ
рь
ją
▁y
Lower
ousel
박
▁znajdu
lament
marker
etal
respons
▁apost
▁Autor
ин
▁мат
▁substantial
hein
nie
▁dernier
老
▁Mer
ouvelles
▁Roberto
TextView
rica
▁gar
eared
anno
Char
сии
▁computer
TO
▁NULL
▁&\
▁Rotten
▁tx
multip
larg
▁Literatur
►
тно
urre
▁Сер
report
▁merc
ruction
'+
ell
▁arrib
▁mag
video
closure
▁früher
▁так
▁tinha
Э
gence
liance
▁Valent
▁zie
anterie
▁da
▁AND
vet
▁phone
“.
De
▁,
▁rig
kret
án
нер
▁calendar
登
▁Borg
▁однако
▁affairs
▁Richmond
lade
ното
Real
Email
▁became
▁CNN
resource
stream
け
тра
▁nerv
▁health
▁apresent
Write
ipart
unnel
al
▁notes
▁Casa
▁Lund
istische
vote
▁deeply
▁empresa
▁sooner
water
▁malloc
▁improved
▁reader
[:
ida
rich
▁Com
Pa
▁__
ὐ
▁DOM
▁onde
▁Natural
Answer
料
▁Dit
▁**
fe
▁map
▁filosof
olg
▁devoted
▁Battalion
▁Till
▁losses
▁tib
▁представ
▁secre
▁topology
▁applies
▁shares
arp
▁nicht
arono
▁mig
sh
▁hade
Category
▁Stars
▁totale
Report
▁conflic
pert
ład
▁annotation
▁Inside
encoded
thing
▁digital
▁литера
ART
rio
Pub
)){
▁companies
▁IEnumerable
Sam
▁Lap
<0x1A>
▁growing
Then
▁Florence
beeld
longrightarrow
▁min
▁quan
rah
▁complex
▁score
ishop
dział
▁Пет
i
An
▁sche
▁${\
icia
▁cook
Հ
rable
▁investig
charg
▁León
▁Übers
wald
▁мона
rió
▁haar
▁seen
▁domestic
▁scen
▁promised
nehmer
▁fade
zil
controls
ASH
▁surfaces
0
мия
▁engine
▁bal
▁Guillaume
<0xED>
ilio
################
onial
▁++
▁отри
▁прове
▁",
etry
INE
▁vuel
ieve
<0x9A>
Cookie
▁Springer
▁Search
зах
Auth
▁му
▁communes
)>
gmail
Jul
bibliothek
▁instantiate
▁du
John
정
ceed
Ø
▁franc
dri
▁strictly
Before
▁Sing
ogen
▁jak
▁!!
ֹ
▁inte
▁пред
кри
conf
▁INSERT
▁явля
Fact
▁accessible
▁quartier
aton
avigator
▁School
▁perfectly
▁Golden
▁Sint
▁pare
▁Dru
▁satisf
▁verwendet
LOC
▁Dialog
▁partners
ště
▁ion
▁summary
?}
▁marriage
▁quello
▁Dabei
▁transformed
vez
cmp
.\
▁rabb
▁suic
▁ult
▁[{
illing
ának
▁Learning
▁Amy
лат
ächt
▁Control
▁grade
▁efficiently
▁ра
Car
bildung
▁emission
see
uer
otto
Menu
▁Tam
▁Luis
visible
▁consequ
engo
└
▁OK
ally
▁discussed
stract
⍵
}}$.
lijke
ografie
▁nach
▁Config
▁kne
▁corners
▁király
westen
▁Geographic
▁Wonder
<0xB7>
▁elif
ioso
Ю
<0x3B>
▁Brow
▁прод
),
▁govern
▁сред
▁возра
▁simpl
置
▁polygon
▁dé
bar
▁Je
▁Pf
VAR
▁öff
▁Cup
▁Års
▁recursion
▁servers
▁Remove
▁Rolle
▁intensity
▁loyal
@{
▁University
ení
лово
:`
▁convin
Fire
▁Foot
▁plants
adamente
▁Según
 
Is
▁Comics
▁deren
ח
▁Det
saved
Med
▁Med
▁grado
▁Rosa
▁cle
最
▁później
▁febru
▁asynchronous
ð
laration
тельства
guez
mul
´
▁winter
▁Stutt
▁stra
ibt
Russ
▁lavor
▁fase
▁fire
folio
sole
prom
▁denotes
???
ot
景
▁Cannot
▁Febru
'"
▶
▁Sher
вър
replace
▁"*
(!
Root
vano
▁credit
Spring
лось
Prom
bird
▁Interest
cki
▁wil
▁channel
▁aside
CSS
▁mot
▁soll
▁musique
▁ле
▁appro
useppe
olar
プ
adj
▁now
Vol
▁сто
äl
ntil
зов
atives
▁учё
▁generally
...,
▁política
ization
▁região
▁Й
▁settled
ethe
üh
ination
BB
▁brut
на
ests
▁operated
tabs
▁guid
Tom
▁Tour
▁kat
qu
Œ
▁h
▁too
ynchronous
ʃ
ject
▁cos
Resources
fb
illeurs
cii
ไ
▁kdy
▁charges
ql
▁catalog
▁';
ън
▁recently
oi
▁Jag
▁Bevölkerung
vas
▁primera
Receiver
"></
▁października
▁praw
▁Studies
▁maggiore
▁servants
▁отрима
ɡ
▁quindi
▁Fer
▁authentic
▁Guinea
▁Sur
▁bunch
ając
ե
▁inst
▁increases
▁mean
maxim
Else
▁goog
₅
mathbf
arrow
aries
▁Pietro
▁себе
▁Democr
▁pres
▁Hu
▁externs
Reg
▁sp
endre
▁),
▁increase
▁Wiel
marks
▁что
▁gateway
▁vous
▁achter
▁ад
tatywna
▁Ost
▁kon
▁admit
Initial
▁autor
▁returns
hung
zin
roph
ORDER
▁бу
run
Timestamp
▁Hospital
toggle
▁legisl
▁Area
▁près
ма
▁pred
▁SV
▁Man
вый
amour
▁plane
▁rust
fers
frica
->{
▁fighting
▁contribu
자
▁minds
}$-
oster
▁webpage
▁K
▁Kle
▁glance
▁kingdom
▁Итали
пон
визи
ima
▁organizations
▁sequence
▁alleg
▁probabil
trees
Http
ри
шо
▁remembered
hou
rado
▁numbers
ve
▁bund
thead
omány
©
▁Gest
▁orig
▁repla
schule
▁palab
endum
bind
ger
모
CLC
▁включа
▁Dis
▁definite
isions
depth
橋
▁actress
▁possible
▁prints
px
▁Commons
▁élections
▁PATH
uder
▁LO
Put
▁Kay
▁factory
▁larger
▁across
ld
▁Ша
simple
▁Ky
itte
▁ори
omas
ɛ
ffe
aded
▁Between
▁револю
voir
yz
▁Ку
▁Intern
since
kter
Lin
<0xAC>
_{\
ederb
)`.
▁By
ees
ANG
poses
ċ
▁Media
▁talent
ҡ
ende
▁со
lingen
servlet
▁stub
GROUP
▁одной
▁sm
Gesture
▁details
fac
getElementsBy
⁠
▁Non
pole
Results
▁unnecess
▁calculus
▁Osten
peror
Elements
bolds
▁Фе
▁confirm
▁Wikip
logger
▁sol
▁primeiro
▁worship
▁Seit
geme
light
lop
transition
CM
▁Zam
▁collections
чень
▁chapter
▁launch
▁language
▁Hav
ként
▁approximation
▁ко
▁Zwe
真
▁blind
prim
Cr
}-
▁Sony
▁Fon
abl
め
dek
brains
antics
ked
▁Rick
▁await
problem
▁Lan
vb
lt
-)
hrer
слід
▁Apol
−
年
友
恋
▁музе
▁Klaus
▁XIX
▁Besch
▁Auß
:
ธ
▁Binding
▁травня
▁MyClass
▁англий
ética
".
主
▁Arch
▁Jac
▁гру
asset
▁integrated
▁Windows
▁ja
▁tienen
%%
émet
▁взя
º
▁false
▁determ
зм
erson
▁plain
▁dia
.)
пет
rael
▁имеет
▁сай
▁benefit
▁commander
maps
▁type
▁states
▁hect
▁hockey
▁PK
▁wet
▁mechan
▁Power
ṣ
otte
вин
HttpRequest
runner
ibil
▁demo
ichen
▁bila
hner
▁sequences
▁slide
autore
cdots
êt
ield
▁perce
▁vio
י
▁bass
▁desar
Marie
canvas
quer
linux
▁causa
▁interact
Arr
enumerate
▁ns
▁Magn
트
оз
odox
apan
▁NR
▁combatt
anal
▁purposes
▁backwards
л
▁Customer
wid
фор
ví
▁lets
▁сез
getName
▁College
▁Chi
Prefix
imedia
▁threads
▁executes
valueOf
创
Line
exception
▁Vel
▁нор
▁gran
ersion
aten
args
▁fond
▁universal
▁în
▁пар
▁prac
▁controller
▁Однако
▁кіль
лья
▁рік
▁primary
erten
▁structure
▁torraste
zn
▁VARCHAR
▁started
▁Rés
ulated
十
dl
zych
PUT
яз
naio
▁arrow
us
ages
▁doesn
"]
="@
Ét
▁ucc
bud
▁switched
▁cars
ulp
while
▁Ign
Agent
aren
▁сайті
▁Bro
("%
▁moins
▁complicated
gc
▁viol
▁Terry
▁tempo
<unk>
▁ssl
service
▁souvent
ião
like
ies
quote
was
rizona
□
ason
ého
BE
UM
▁neigh
▁reconoc
▁Met
▁"\
burgo
три
ruct
▁сві
▁skill
▁entferne
▁Yet
▁NS
ィ
bably
);`
▁elimin
▁inline
▁Are
▁however
onas
▁trigger
▁client
лены
rupt
Serv
aque
lst
local
▁Ki
▁`--
▁Spieler
ainer
▁roughly
orrow
▁orientation
▁ers
▁transmission
▁Paris
Pair
oning
▁fle
▁US
▁autory
▁experienced
@",
▁Holz
▁ско
▁conscience
ĕ
▁upon
▁classe
ỹ
rog
▁municipio
▁стал
MENT
CONT
ване
▁prend
<0x4E>
▁adaptation
▁Ext
▁titled
▁tone
▁mob
rets
rho
imiter
Main
▁Toul
people
▁Nie
▁dolor
quia
plex
embers
wed
ülés
▁anonymous
▁proposal
respond
idents
▁Гре
Problem
ự
▁тре
▁freely
▁pressed
▁Cs
lag
cut
▁Gén
▁Sort
▁Univers
anchor
▁proposition
▁Vari
Associ
▁ram
тельство
▁Chair
给
▁bases
▁age
▁Begin
rix
клю
▁possib
▁recent
▁straight
▁Ludwig
ées
Cho
▁hack
algebra
ull
▁nave
▁optical
▁issue
▁technology
õ
▁community
▁dominant
▁trip
▁AR
rg
ppets
▁help
▁Think
anced
▁principales
prime
ю
▁originale
▁secured
▁Holy
▁fif
▁Armen
▁deeper
्
lista
▁accessed
¬
▁está
▁historique
▁net
▁indirect
▁territorial
Final
▁peak
공
▁Hand
annot
▁buildings
▁Switch
▁chaque
ight
selector
▁века
▁worst
amd
Generated
▁checkout
▁Від
▁debe
▁turno
▁Также
▁singer
Seg
▁WHEN
▁%).
▁")
▁appears
ja
▁integrity
ления
hire
"])
▁convenience
▁controllers
обра
▁###
ppo
▁behaviour
▁Lar
▁electrons
▁Flor
▁Wei
▁converting
iverse
▁containing
▁attention
expect
▁Fame
▁Rund
▁foram
стве
isch
▁particul
▁gobierno
▁our
▁volte
▁parfois
}$
fficial
▁Ein
cin
ipe
switch
▁Gene
▁On
▁edificio
Mor
発
▁Transfer
ற
▁weak
gov
hai
ool
▁Archive
processor
▁underlying
cock
▁x
▁zw
▁placed
▁Tsch
alloc
₆
▁convers
Sm
▁область
段
gio
vě
бора
placeholder
{\
из
▁sounds
▁vál
▁driven
yw
▁País
▁Oriental
▁heutigen
ный
schied
▁datos
▁usage
▁López
▁claimed
▁blo
RGB
igt
free
▁linear
▁Вели
▁Statistics
▁Symbol
梅
▁attempt
FROM
▁Buddh
▁Т
presentation
元
▁cancer
▁Dam
▁gave
▁Mode
ouses
Shared
▁handlers
INIT
▁wal
Rem
▁lamp
▁Academia
▁това
▁immagini
estamp
▁Element
▁ling
ië
▁oltre
▁eleg
TC
ش
▁Ald
Track
akers
▁assets
▁información
chunk
▁improvement
▁message
▁línea
ней
гре
väst
▁possono
3
▁Font
▁Facebook
馬
Double
▁складу
=-
сти
▁Википедии
▁fortune
wers
▁тради
achusetts
▁routine
▁vs
egos
▁reports
rai
wicklung
▁sugar
ebol
вропей
▁póź
▁Gr
▁nell
érie
▁liqu
թ
мін
▁quando
download
▁beside
▁mathematics
▁Э
▁AP
includes
áb
otted
ful
base
▁sin
▁Say
▁beaucoup
FILE
▁ring
teen
▁свої
▁apple
istro
zes
▁accept
▁Rus
ئ
要
£
▁призна
▁có
urope
ん
pont
▁circ
▁Leop
ził
)
▁lies
SON
▁estilo
ondere
▁adult
▁TRUE
▁dedu
▁sensible
▁should
dialog
eg
Dest
oven
ift
▁destruction
▁Hog
▁eager
▁Hero
▁humans
Lu
ighth
ด
▁sowie
ACE
Author
onna
▁Instead
▁Гу
超
▁wrześ
▁recurs
▁created
place
▁einen
▁entry
▁did
▁happy
▁Bank
VI
oug
.</
aling
<0x0D>
▁свя
Question
▁concentration
chem
Test
SO
igin
%=
▁Bed
7
▁assim
Story
isher
bec
tes
ac
▁Nothing
prü
cuss
▁ing
ago
▁finales
threads
▁III
▁enjoyed
▁territoire
▁React
▁Court
▁Nieder
гне
▁cycles
ться
▁clo
vole
née
▁installation
▁Isaac
▁forcing
▁Mundo
від
▁Even
▁Geography
lua
▁Perú
brary
▁окру
▁ud
▁christ
ними
ikes
bag
ess
ationale
Listener
▁trivial
្
▁gentle
▁angry
▁Daten
tikz
▁ayant
ired
jal
terre
yl
agnostics
▁Mat
▁changes
brow
▁золо
ators
Ё
▁posit
▁Zent
▁closest
▁%),
▁ro
unique
▁personnes
昭
лог
ты
▁Under
({
tools
comb
▁estimated
▁terug
나
▁sending
rett
开
▁printing
().
▁Studios
],[
▁mystery
▁attachment
АН
▁Kunst
ija
leveland
社
▁lei
▁Википеди
Usage
▁stat
queue
(".
▁Gebäude
▁regiment
▁vit
▁devi
▁quietly
▁practices
rf
pect
Run
▁poč
▁reserve
▁habitantes
▁markers
should
ERE
▁кафе
diff
signed
▁immediate
Changes
▁Nam
▁comenzó
▁Olimp
▁kW
entry
⁄
anne
▁Aleks
▁свою
▁Unless
▁sample
----+
ohen
ющие
asma
nig
▁IR
imen
message
javax
▁smile
Rec
▁сентября
Ἐ
▁abgerufen
phan
▁duty
nym
▁higher
▁ignor
▁Bitte
Пе
riv
ная
yntax
र
cile
irk
▁Mach
kil
▁gemäß
▁gent
▁re
▁bought
usa
べ
igned
▁Рес
▁needed
)=\
▁-\
▁Collect
données
▁solid
askell
of
▁cursor
AN
Values
▁northern
vspace
▁també
IX
▁Васи
mos
▁unexpected
▁fran
▁mouse
▁Complex
▁DE
▁ordered
CS
▁zaw
▁repet
ج
gnu
非
▁response
nof
Site
пей
xl
▁пока
▁Rugby
▁rapport
▁cable
▁буде
▁warning
uti
HS
▁Institut
▁el
▁Graph
skiego
ória
ibration
▁Gall
▁successful
Illustration
`
▁broke
ције
isf
equal
▁toler
Serial
nd
▁tamb
▁goods
ustr
pin
▁Cr
iman
▁error
nost
▁reactjs
Wik
ties
Project
▁Leip
▁conced
▁calci
▁koji
avano
PH
▁ibn
gener
сен
▁spectral
film
gh
Field
yo
▁Block
>(
ят
postgresql
▁anim
égl
之
вер
}$.
urls
▁moy
▁parent
▁Round
▁non
ської
othy
found
▁Monsieur
ansk
부
Pat
▁speech
▁Lew
validate
▁Sample
ския
▁profiles
ahlen
▁subtract
▁mayor
▁Vi
Children
vc
▁essentially
atile
поді
style
▁При
▁hope
ela
--"
▁refuge
怪
▁части
▁hoog
jar
reset
▁commanded
ací
Level
G
▁cler
ERROR
▁competition
SDK
AMP
ername
lime
object
▁Ки
▁drivers
▁metres
▁Martín
▁Parte
▁Thomas
obj
▁Index
▁Fil
DBC
试
▁Lehr
prof
▁от
basic
▁moves
▁Ex
▁alberga
reno
ров
same
▁équipe
▁Моск
▁Welcome
▁Dí
▁'<
lot
édia
)+\
jm
enze
dog
ν
equation
вор
OW
kin
▁paste
▁Business
▁militare
▁Éd
anja
▁southern
owanie
∙
▁comparing
markt
▁'
IAB
ances
▁Cou
ias
}")
ty
Phi
▁diam
▁comfort
selection
▁single
ending
clip
▁настоя
aman
лом
▁defense
▁Dj
<0xCD>
▁good
▁External
▁футбо
▁inclusion
▁тра
▁Sloven
▁options
▁aquest
▁Andreas
▁bou
<0x91>
▁context
ountry
▁två
slash
▁lod
中
▁igual
▁Krieg
▁The
ず
▁wur
▁Because
kh
mathsf
▁standing
vity
▁divis
get
NR
▁quien
Û
▁ort
▁prices
▁Musik
▁Пор
▁sir
ступил
▁Ch
str
▁period
首
pack
witz
ume
▁lorsque
ermann
INSERT
▁Singap
▁Originals
last
▁:
ји
idel
▁Wol
mb
▁SQLite
▁Rem
istol
▁дея
▁formula
▁América
▁article
staat
▁songs
RO
▁исследова
▁littérature
üs
▁hat
nych
Direction
▁COUNT
forEach
ões
▁sta
▁mehrerer
▁Lib
argv
сько
égr
ℝ
.](
iven
▁Foi
lava
▁profil
▁checkbox
▁recher
жил
љи
▁Пи
<0x39>
▁util
óż
▁Вер
▁Finally
▁var
icio
▁her
▁trou
ined
▁guessing
▁puesto
▁MR
▁Officer
▁deprec
Fr
▁ta
▁Ful
▁restored
zeum
ragment
▁dream
▁Bern
▁ben
▁vern
▁chemical
▁cell
istr
▁CHAP
▁konst
▁imply
▁Ris
บ
▁–
▁Package
场
▁props
▁Ib
lat
thers
uth
IMAGE
▁dtype
▁prevents
amen
<0x55>
▁gr
▁VIII
)));
▁scenes
▁Bischof
▁cast
▁Tax
obox
('#
▁Shin
車
▁land
▁infinitely
▁Amerika
▁Vienna
▁project
ök
▁implementing
▁reun
▁Româ
ession
ké
▁introduce
▁encuent
▁visited
▁Polsce
列
▁краї
▁centuries
▁Jones
▁silent
▁subt
▁tbl
onen
▁besteht
ве
▁none
jt
▁jeweils
▁Bird
▁пове
▁support
▁Lit
Ids
Sw
PA
jp
drive
pine
▁Sprache
histor
makeText
geon
lict
Gui
notin
estanden
öll
▁expect
▁hero
▁Parameter
calc
enta
▁Cond
▁политиче
6
▁Special
▁richt
nederbörd
▁requests
andal
shire
り
break
etic
▁working
cur
iała
▁Schauspieler
近
▁English
comput
▁better
▁North
tasks
천
▁scra
Vor
iks
▁int
▁notice
▁connexes
mm
emetery
walt
каз
гово
лемен
▁Whether
▁cab
จ
∗
▁Trans
▁occup
▁market
▁consecutive
宗
▁fatal
ниципа
rale
Byte
<0x47>
▁aute
▁rå
neo
Ð
Bit
▁Chrome
xxx
▁Rég
┃
▁numero
orientation
▁instanceof
▁Houston
veis
▁apar
src
▁enem
Movie
소
іс
servable
▁vrij
▁klub
▁tale
<<
ivid
Mar
oked
Foundation
▁split
▁lect
▁Националь
RU
▁concurrent
▁vesc
▁Oficina
dm
▁pero
ლ
LECT
▁▁▁▁▁▁▁▁▁▁
бо
GridView
▁фо
▁Niem
rl
hspace
ق
▁Sold
Import
▁artific
agg
tit
▁manten
läu
▁Germania
▁gener
▁Channel
alt
▁släktet
nsylvan
ō
▁things
▁addresses
YS
▁specie
崎
ника
ota
гато
▁habían
▁nú
聖
usted
oring
▁’
▁middle
▁Gener
front
agent
▁bog
▁тру
▁adj
ologia
hl
▁participe
ester
↳
▁writ
'].
▁DEFAULT
Folder
▁rights
▁TLS
essions
conda
izable
テ
iale
▁Februar
elde
▁communic
▁infant
▁toutes
▁$.
▁nep
overline
okrat
hook
wick
ז
▁aktiv
}{\
▁Kr
▁differential
вого
▁году
▁rot
▁Gemeinden
▁цар
▁migr
()
arter
ським
▁accompl
;">
▁thr
start
iser
IONS
▁харак
▁many
fully
▁watch
лы
<0x41>
imos
springframework
am
ários
wor
▁distinguish
喜
▁cancel
▁á
▁peer
▁Wille
now
▁Hil
▁ци
sten
бург
ultan
▁physics
▁family
▁adds
()"
atus
▁gep
More
apat
▁Pom
▁dátummal
berger
Observer
▁отме
B
い
Active
Power
▁intitul
▁Кор
▁Alb
лян
шие
止
▁Kos
avor
▁compression
ה
ủ
ashington
▁Domin
ona
▁lug
▁hal
implementation
▁droit
▁deck
ˆ
▁Fo
▁lire
✿
▁Flag
▁б
▁encrypted
▁Áng
▁czas
▁прово
▁hypoth
yellow
">
▁pride
station
▁products
고
cir
owner
strij
▁solar
seau
fty
mals
;
▁thing
▁неко
Са
codes
straße
▁dost
psilon
▁wrapping
apy
ich
▁fir
▁Gam
<0xC5>
▁préc
▁Professor
▁Town
▁stam
ituto
SS
▁Rule
▁administr
вя
▁seat
터
▁Napoli
▁configured
▁augusti
▁î
ob
▁Theatre
▁totalité
ica
sourceforge
--
▁there
Di
▁Пе
̀
ele
▁mu
isk
▁Namen
▁sog
mbH
▁Gö
yond
giv
jdk
▁Vice
isEmpty
ailand
▁использова
▁Kansas
manager
▁India
Series
`:
▁Data
▁Drag
nice
efe
▁Kirk
▁Multiple
нього
agi
▁ORDER
▁kyr
▁cm
▁zač
▁research
ebru
Inst
▁попу
∷
▁merged
hom
▁cô
issent
▁Jefferson
▁приз
ши
▁Airport
▁EL
▁Gla
▁lar
▁Pour
вших
auth
▁Auto
uld
üge
I
cych
英
illi
ometer
argent
ähl
enger
▁constructor
Enabled
▁sorted
serial
:]
сад
utions
pages
Bitmap
<0xDE>
textit
quot
▁Système
▁Carol
тря
Unis
▁confirmed
ennessee
▁Marina
erved
▁WH
uesto
▁ii
▁pull
▁Branch
zza
▁confident
ariat
▁possibility
▁Face
java
▁shr
空
▁Резултати
▁После
▁locate
▁kar
())
▁pleasant
<>
роз
erving
▁equipo
▁Corps
KB
▁'/
bling
▁over
learn
ab
role
▁Know
isu
DER
arante
▁grep
▁Lyn
çois
▁persist
▁zwar
idades
яв
▁unit
▁(+
▁Championships
▁basis
▁(\
готов
▁Specific
CG
arab
endo
ляет
▁strict
▁пописа
inter
<0x42>
▁från
▁cím
rep
ners
fan
mont
ћи
ingt
▁действи
uve
▁workflow
fault
uck
рован
.“
tersuch
gia
summary
½
Gest
▁soup
▁seemed
lower
ync
▁Series
ită
registr
ga
ɾ
ollar
зя
▁Mult
▁день
▁nest
▁Ż
constraint
▁mér
ppings
▁спи
▁Gü
▁Match
▁legacy
▁Rod
▁THE
▁Anne
▁że
▁lap
▁Farm
▁Rol
▁faire
▁useful
▁export
dg
▁направ
▁suffix
▁combat
▁weather
This
▁institution
aturing
Once
amma
▁musica
▁believe
ユ
sudo
blica
▁Crit
▁Bag
ULT
▁student
akh
▁students
▁horror
cción
={{
Domain
master
▁nur
ternal
▁фамилией
▁Bootstrap
iene
odb
dd
jboss
umb
prote
curl
▁feel
▁lung
▁dwell
▁implicit
▁"";
▁storm
▁selenium
▁textbox
▁seconda
tw
▁северо
え
▁into
▁están
ender
包
UN
▁neut
owane
TEST
">
▁mouth
pto
IOS
eggi
▁November
headers
Create
▁{:
▁Safari
▁excitement
▁iteration
using
andra
▁keeps
mpeg
SF
▁París
tags
▁partner
▁$("
▁painter
▁otro
anse
igos
▁alphabet
▁variants
пол
lywood
umar
▁»,
▁trim
achsen
▁newsp
▁machine
asketball
oti
▁Territ
ptember
Dis
кономі
big
▁signature
来
▁mens
▁Fox
陳
об
YY
▁mant
neg
▁precis
▁tokens
]:
лися
川
流
otta
▁Ott
DAY
raine
iras
raise
■
▁XIV
>"
▁successor
Net
▁Juan
cedure
▁jap
▁Cult
▁sorry
▁super
▁versión
▁expon
кло
▁Tags
▁spatial
udem
▁арти
▁dès
▁arbitrary
зво
▁zahl
To
Il
ccion
▁parties
MAIN
<0x38>
▁Mus
▁heute
▁direct
encode
▁meat
чне
elines
▁brasile
▁ár
amento
why
führ
rr
Case
frames
▁autorytatywna
onne
▁fö
▁scarcely
unta
host
▁зай
▁parad
ength
цию
qa
liament
▁States
▁junio
Cells
kotlin
▁euro
▁/\
tilde
Extensions
region
▁Roger
igr
number
▁seines
igua
▁&&
Expression
▁встре
▁Buc
------+
▁Gas
▁Bapt
▁debug
▁phrase
▁donne
▁shelter
▁Hom
▁Zum
ók
▁singular
ês
ificación
▁die
Aut
▁Sud
▁aujourd
wahl
or
▁mondo
▁SN
▁Ag
execution
▁Half
▁deviation
玉
▁perman
amer
/#
▁gegen
▁canonical
注
控
▁кра
Entry
dir
▁Patrick
ctl
▁поч
ubuntu
▁Forest
lungen
hat
▁majority
▁addressed
alse
iken
▁hanno
▁Voor
ibus
ych
▁também
▁myself
PORT
SET
▁пів
steller
▁Template
▁dre
naire
▁Ver
bern
▁ihn
▁Jenn
icki
▁street
ují
▁desarrollo
▁py
▁one
Android
▁необ
▁naam
овий
▁mich
▁Politik
▁живе
ší
ri
▁theories
R
▁Barcelona
▁Anthony
▁гово
Documents
▁widget
plementation
agar
father
hape
▁famil
▁nem
▁Sy
▁szeptember
▁conference
bourne
title
▁Lic
▁Vers
▁if
▁summar
separ
▁producer
▁saved
▁Sah
вом
▁jeunes
ョ
▁bold
▁gram
öglich
▁connu
▁Pier
▁depend
▁Dallas
stelling
▁observed
si
▁dispar
physics
members
(:
rok
lär
WS
DOCTYPE
.):
▁mixed
andro
ocity
니
▁emple
Ò
▁Wort
ième
tis
▁framework
*"
kappa
▁perm
”.
▁selecting
▁Math
▁Eth
▁stesso
certain
▁sn
▁developed
▁гра
ablo
integr
ħ
▁Primary
via
ную
▁bisher
jos
вал
│
тел
▁spectrum
Volume
orm
▁dalle
▁jsf
acht
丁
▁muss
▁Sainte
})$
graph
▁Льв
ences
▁Ž
▁Brand
sko
▁données
▁treated
uct
ط
▁act
option
▁obsc
ifik
ি
▁newly
▁appreciate
▁requ
▁Peace
▁indexes
znik
▁prospect
ay
▁User
DD
filter
ensa
cca
▁Gast
kee
orde
▁individ
▁май
认
ч
widet
▁заво
ू
▁Collegamenti
components
ые
▁prob
gie
alement
▁poll
▁доку
▁Conserv
龙
make
▁nucle
▁solve
▁listed
cess
elsk
▁reflection
▁Db
±
▁Jacob
状
▁fool
la
▁Украины
rc
▁paragraph
▁router
afen
▁Brasile
cular
▁proper
;&
niej
▁primeros
ionario
▁hit
▁Little
つ
▁gold
торы
▁rodz
▁Се
▁Bright
▁become
▁Record
▁Sug
▁nome
Dev
бря
▁without
owana
▁generate
▁долж
▁</
eros
▁ss
ourse
▁después
▁Row
▁спор
男
▁economy
▁integration
єм
▁cord
▁anglès
▁Cor
richt
ampion
▁casting
▁obs
▁diction
кти
▁stri
를
▁somewhere
ko
Objects
∼
▁ці
▁strategy
Grad
жить
▁addr
▁alone
▁firewall
щее
▁hombre
oon
▁Navigation
▁Vé
▁particularly
▁Роб
ures
▁Take
▁Source
▁inher
uria
una
▁P
bro
▁già
▁sain
▁timeout
ей
chi
oll
▁Ни
anned
ܐ
雲
BS
XML
▁(:
▁Magic
unda
esh
▁Once
▁Psych
чай
ì
▁Pfl
▁Heidel
sets
▁updating
зи
èn
eurs
▁PA
▁elegant
edo
▁Koch
▁Koh
N
▁Christoph
▁@"
▁//
DAT
▁highway
▁grandes
▁driver
▁Kong
手
▁plays
arse
▁Picture
*{
▁pedig
▁Бар
▁until
▁platform
▁chi
▁бе
▁Urs
▁Mart
▁$(".
▁supports
▁computational
▁causes
▁Always
atta
▁partly
undial
▁peint
ado
acia
▁parsing
imper
öh
Help
ouss
▁deleting
Mat
umann
▁leaders
▁smiled
▁Contact
тельно
̍
cil
▁sciences
natural
imore
ivamente
▁Void
▁Natur
unt
áv
ninger
Pixel
▁há
▁abroad
想
▁bool
▁présent
▁distrito
▁services
aller
ital
ITableView
inct
iders
▁dort
▁объ
pios
ult
▁Бу
itié
sc
▁Scot
Path
Atlas
radio
机
▁bod
▁sharp
omial
Dig
▁Бер
▁trouve
▁crew
će
}^\
rod
там
▁locked
ा
`,
▁či
▁семей
▁request
▁або
Ā
▁sze
▁videa
bl
▁executed
emble
▁}`
sha
+"
▁baby
▁Franc
view
tal
▁▁▁▁▁▁
▁nombr
нци
▁ocup
▁"<
▁befindet
op
цин
night
рия
▁cb
▁Raw
▁occident
vel
Note
нима
▁Syn
▁А
▁Configuration
▁pentru
▁practical
ße
▁sets
^{-\
Int
riors
▁zich
▁exclude
occupation
▁nasc
▁In
Upload
code
▁wyd
Util
▁Cuba
▁Seiten
▁quant
▁progress
анд
▁altre
▁citiz
лася
角
angular
▁cod
▁Lemma
HTTP
pt
▁subsequ
▁aid
▁Five
司
ща
▁Louisiana
▁autres
InstanceState
▁altro
ading
▁organis
angu
▁nagy
▁reconst
▁Ts
ну
▁неско
▁vě
▁latach
▁сезо
▁nello
▁asks
ˠ
ovan
▁Mount
▁sedan
▁protection
cle
▁during
èse
Loading
___
▁derni
▁Kub
ifecycle
▁worth
▁Ви
yard
▁Роди
avas
puis
▁hos
▁Tier
▁root
▁reset
▁$\{
▁Long
Longrightarrow
▁belle
:\\
ogn
孝
sl
▁population
▁horizontal
▁bezeichnet
▁abstra
▁Zeitschrift
▁indu
egu
▁CT
anth
android
kbd
▁Shakespeare
Scan
sel
ución
▁capital
▁personally
uchar
▁sum
évrier
gz
▁моло
Repository
▁участие
unque
clojure
▁Week
heart
▁distribution
stwo
▁occurrence
ヒ
▁$\
▁label
▁wishes
▁пора
ud
▁Quart
тель
inha
▁naming
Ref
ivos
/_
ický
加
▁Cell
▁wz
▁equilib
tan
ственной
ANT
▁mascul
▁Bull
▁str
▁Senior
▁scop
EB
▁▁▁▁▁
éo
▁script
▁Collins
ai
amed
▁experimental
▁removing
▁тор
▁Государ
riminal
▁histor
▁reply
ev
sce
▁predict
fic
yt
▁slightly
lak
▁”
▁human
▁blue
▁DA
\,\
▁observable
++;
▁vision
]}
fass
%
▁Kurt
ugust
▁Sain
lax
▁grands
arius
`-
▁risp
ὲ
ios
db
▁valley
True
SIZE
pkg
▁när
Upper
看
▁District
▁Ét
caught
ifique
▁ek
隊
▁illustr
rant
<0x69>
▁measurement
SHA
Ad
Execution
rivial
dart
▁compilation
mac
beck
▁bra
▁Kab
▁connect
эй
▁ener
чество
ighter
중
▁La
▁peace
rol
Bl
Next
icación
▁Bir
ern
contra
inson
▁это
▁Ham
▁относи
ushed
FOR
Les
▁ze
▁cross
▁triple
ena
ología
ampio
fri
▁soldiers
▁член
minus
▁nine
▁antigu
AU
▁зі
verify
actions
▁Steph
Session
ү
pha
▁molti
▁use
▁utilisé
藤
în
letin
raint
TP
▁men
▁Raz
œuvre
▁forms
▁informed
▁SE
▁df
ake
ièrement
umbled
oracle
<0x79>
Connect
▁Israel
▁city
▁finally
▁Array
USE
integration
Ď
dade
▁второй
▁execut
▁Method
▁snow
ider
atures
edule
▁arqu
▁corps
▁playing
▁magic
ách
▁engineer
Receive
Thank
acker
<0x2D>
▁origen
Ṭ
⊕
▁Ros
吉
▁Grant
ür
▁Š
vision
▁season
▁име
je
ocs
▁Cher
▁stran
'],
hips
▁Mexican
▁culture
⁰
occer
ipes
▁change
uola
▁looked
iba
▁Ко
▁smallest
▁fired
▁compart
▁island
ódigo
urm
itative
besondere
beta
getString
fortunately
▁gaz
стран
(),
▁Maps
<0x2E>
bst
)}.
ther
▁addition
▁Robinson
▁Harry
▁ж
Err
▁raised
▁worker
ostream
▁к
▁zeit
ر
ith
▁anybody
until
ș
▁night
itor
oph
appro
▁production
hens
▁Master
Recognizer
▁LOG
uden
▁pretty
ൻ
▁perf
Messages
▁King
gt
<0xDB>
▁ged
нії
▁Wasser
ным
uale
▁Ster
▁large
▁disse
verb
▁работа
▁threat
▁reduce
shared
ochastic
▁tw
\|
andon
▁Kol
▁fert
LOG
го
▁органи
rw
▁Vietnam
)},
▁Robert
▁dozen
▁wave
▁plan
ован
▁letter
trat
▁производ
inación
министратив
ierungs
ommun
Linear
▁loading
▁Born
▁dio
▁flows
NA
▁Ulrich
action
▁remember
egeben
const
▁passage
▁perturb
▁bla
ingu
";
▁users
▁explained
▁bom
▁ox
▁Army
▁columns
ído
▁leadership
共
▁между
▁Wa
▁depends
akes
lang
▁awarded
▁defe
acent
▁fem
joint
▁-=
▁backing
▁simulate
▁excellent
q
ска
FT
▁boys
▁INNER
▁précéd
emein
▁ASCII
▁Academy
abel
desktop
germeister
jection
▁Paolo
▁Affairs
ear
avan
phen
use
СР
рит
▁Fri
development
▁ven
▁very
▁Pays
▁wsz
▁dirett
▁st
ご
ierto
uje
ilar
▁öst
ULL
▁bast
▁stock
▁är
▁views
▁infl
¸
▁jusqu
frak
angol
binding
ń
ense
aterra
▁Identifier
▁Í
▁dispers
roit
▁explo
▁извест
▁gau
гом
▁Sak
fli
owano
▁av
ilities
▁synchron
expand
▁verschiedenen
Ț
克
task
▁Each
▁produced
▁среди
▁opportun
ций
cel
tomcat
elijk
through
▁établ
haupt
duration
▁wobei
▁somewhat
▁init
▁Later
▁Kun
▁repro
▁Лу
kg
及
▁cities
oney
Mult
cul
buff
atre
▁relac
▁natur
ждение
мент
▁Sov
jan
▁autour
路
lias
▁rap
▁Encyclopedia
enda
土
▁walk
▁Route
▁quadr
ilers
▁вместе
"+
opp
subset
▁uncle
ady
DEBUG
bye
dn
omet
▁asking
▁erfolgte
▁operation
}}_{
▁refer
tc
eth
▁looks
▁pes
▁alcan
.",
▁abc
MAN
▁pił
apt
▁opts
eton
orten
▁Several
▁amounts
ental
connection
max
▁Pont
▁Leon
.`
ñas
anu
prilis
ential
▁football
▁vá
▁nun
dependency
univers
abi
umeric
▁distribu
ży
▁suddenly
▁Setting
фі
át
bia
▁Solo
▁Look
▁anderem
gat
église
Auto
▁ases
▁Christ
▁black
▁(«
adora
▁financial
▁eggs
od
▁Mang
ází
re
}}
ifa
▁lors
▁simult
▁urs
relation
▁scrit
▁insc
ashed
▁Freder
▁Fen
▁Brun
пло
▁[`
gericht
▁stopping
▁first
▁subsets
tfrac
▁expr
javascript
▁difficult
▁Boolean
▁französ
▁kot
;"
cla
▁Ö
▁Shang
▁bekend
▁span
▁кото
ViewModel
underline
idan
▁качестве
▁newer
ff
ępu
сон
ify
▁Species
Graph
▁ker
▁Basic
▁mainly
に
▁alles
▁Herzog
▁ге
▁emot
▁Baseball
▁si
▁dataset
▁Mens
ienia
▁Wikipédia
▁walking
▁behind
пад
etailed
рі
▁win
LD
awt
▁Riv
▁pir
chk
▁machines
jö
▁ger
▁Julian
▁remov
▁steel
І
кур
цев
▁Chron
г
▁вклю
alom
▁moral
мож
▁Working
▁ż
▁sé
fu
こ
▁Fine
oire
ে
apolis
ittee
▁poly
ത
absolute
rim
▁shift
▁eclipse
▁kernel
▁directly
KEY
▁bus
▁один
microsoft
uky
▁advanced
▁'./
▁FROM
ських
▁nag
▁contributed
ucci
Den
那
▁Sim
▁центр
▁Solution
▁url
▁XIII
fast
▁initialize
{
▁most
stelle
▁Antonio
ствен
▁guilty
话
▁extern
Visible
álva
дови
SB
▁shared
▁ві
▁работы
($
▁Mov
⥤
лько
▁Tokyo
Cam
▁fille
ників
▁modifying
▁Prize
\":
▁contempor
abama
▁Agu
▁produces
ง
▁Pin
ąz
氏
▁tum
▁Gesch
koz
ے
▁limitation
数

▁");
ospital
▁significant
_{(
▁United
▁okres
▁vou
▁linea
▁Rechts
▁arithmetic
▁cerca
INFO
Cancel
▁rivers
érieur
ско
ле
▁toward
▁Campe
▁player
▁resolution
▁params
▁calm
▁Black
▁Совет
▁payload
▁wyn
▁Ses
▁mouvement
onato
▁"+
▁indicated
▁cache
▁required
▁proven
ented
▁Rev
έ
▁scratch
▁Fernández
,’
englisch
▁Account
alone
▁orbit
▁зда
ʐ
omsnitt
▁previously
▁New
▁Britann
▁epis
楽
▁fiel
taient
▁Korean
▁entertain
Р
스
▁mars
▁Sol
ме
▁maps
▁patient
iencia
▁provincial
死
Color
tele
▁l
ба
cation
▁onder
▁suggestions
▁turned
κ
Imp
▁scar
quisition
▁Looking
▁dign
olly
▁Uri
▁accord
▁ва
▁regression
bay
전
encoding
▁evil
}]
äche
▁commence
÷
Actions
laps
uro
▁champ
Bus
▁Simon
▁reign
fir
ube
gesch
рів
▁Tony
▁CHECK
▁Without
emark
▁proceed
▁prosper
▁Martínez
▁tít
▁longer
Multi
▁Such
▁ji
▁faut
▁mentioned
PO
▁timezone
▁aut
▁Empire
ână
ivement
substr
ца
allow
antages
oco
▁segment
▁quatre
zahl
𝓝
▁Mean
▁underarter
▁absent
dots
▁Afghan
ർ
▁resistance
▁января
ations
ходи
onden
TAG
▁communication
▁Frankfurt
▁collision
▁$|\
▁Stanisław
▁PRIMARY
▁delta
esterday
▁Мон
▁livre
manuel
venir
▁webpack
кова
▁Cant
▁allocation
▁seva
including
addEventListener
▁vi
▁terme
Trigger
ът
▁foss
▁flower
▁Fast
▁cosa
▁draw
▁Carolina
▁Bul
▁Kom
Hozzáférés
Des
ช
▁elev
chter
ська
Platform
spaces
▁carre
▁ded
ährend
ὀ
Detail
essen
▁weeks
▁cached
flex
▁Montr
江
▁apo
▁popul
aires
▁signals
;
▁tou
Submit
atra
▁success
Mad
▁ве
▁sword
▁Mitt
▁Ry
Tests
жет
avo
调
шла
▁Stu
▁nev
▁роди
▁запа
▁sott
hour
cmd
▁Comment
▁Death
▁educ
▁Pack
▁powst
▁:-)
▁результате
ි
▁dependencies
▁Fich
odore
ح
\\
▁cabinet
priv
ClassLoader
exp
ises
í
Esp
എ
État
Mill
▁governor
illa
cyk
ienen
Maybe
▁variance
▁француз
=>
ской
▁DDR
▁For
ipo
▁gek
ті
▁dél
<0xBC>
▁Thor
▁whisper
▁decir
thick
ifica
▁glob
▁Ook
▁aunque
▁struggling
▁API
ков
▁však
▁House
▁loader
(()
fish
▁vital
▁becomes
▁selector
}}{
acje
▁anom
Standard
▁normal
▁jo
rand
▁et
onic
▁lleg
▁journalist
ierung
nam
▁Berliner
▁made
ло
▁Wien
gro
▁morning
yles
▁dress
bullet
▁had
▁#[
ąg
▁dimin
西
yar
▁ihrem
▁drove
函
▁voit
ходя
▁сте
castle
▁religion
ract
▁dispos
▁Bash
▁fand
▁special
▁Beth
irs
-%
▁address
▁Poly
！
▁Cat
uwe
▁Хронологи
хе
▁prince
▁voix
▁служ
extract
▁sun
▁Ther
▁Address
aw
iczn
▁вто
▁Domain
bour
▁captured
Zygote
&&
▁protected
aar
▁wood
ting
▁superior
BUG
рите
PASS
▁Frid
<0xF1>
шло
ection
▁lov
▁Track
▁philosophy
Number
бере
▁atomic
▁diverse
mate
opus
ব
шта
▁hoofd
▁roles
▁conc
§
lint
/\
▁attitude
▁Gent
▁Ingl
▁Jahres
▁Bevölker
ု
igan
▁exit
ług
стри
▁%%
iedz
▁diver
AccessorImpl
▁natural
▁threw
▁transformation
类
▁Society
▁South
▁став
dent
cent
▁physical
▁Myst
kernel
▁Activ
▁balls
▁No
XT
rolle
UP
▁partidos
▁vest
цов
han
▁Cit
▁Model
▁scenarios
ocket
▁splend
▁слу
Cmd
々
▁delight
▁focused
▁shooting
ologist
▁mate
кто
yr
<0x37>
нения
catalina
▁hans
▁буду
ци
▁дей
fw
ange
aged
▁ma
▁although
ści
<0x06>
ęp
编
Flow
▁Dig
engen
ʹ
iai
ari
▁Лон
drag
▁idx
vous
▁bank
▁ya
,‎
▁СССР
▁Cole
GP
~$
▁scientific
room
▁Ро
▁Land
▁lanç
gamma
лись
fi
archar
lem
▁Barbara
▁junior
ën
▁brackets
▁Mate
▁stem
▁Col
▁defaults
loster
▁ма
Callback
Order
far
鬼
▁till
┐
environ
▁immer
▁Pak
documentclass
▁Stage
▁();
izo
▁frequency
ifi
)),
▁Parad
▁Cub
twitter
▁Tr
▁goals
<0xDD>
eren
кому
▁Bug
▁rib
▁meter
beg
irm
Found
բ
<0x93>
ifferent
<0xF0>
ounce
itaine
▁fill
▁shot
xty
ém
▁лу
verein
▁Ober
fter
They
unks
▁Francis
▁tcp
▁position
support
▁departamento
Many
▁}}
▁zelf
▁GNU
isen
▁Philippines
▁cycl
fection
▁threatened
▁thumb
▁girl
▁Vlad
▁pulling
▁exercise
ico
вся
▁Му
WI
▁Ghost
onie
Services
▁autre
esten
▁marca
▁может
вня
▁Toast
▁cel
тин
▁fő
roke
▁easiest
?(
▁conv
▁Arm
▁Bildern
▁rég
Managed
▁rou
ً
▁constraint
▁Arthur
does
owym
obi
▁Dou
▁És
▁templates
▁AC
EditText
ikk
▁ruby
▁lasci
▁teil
ér
▁invest
▁Wissenschaft
▁correlation
strings
▁voc
ball
▁Duch
▁CSV
чен
▁gering
éroï
lation
Program
▁aller
▁outline
▁electron
▁липня
▁bes
burn
▁Tová
▁березня
▁соответ
adors
▁teacher
▁Band
Equals
tables
▁déc
▁Демо
▁accomplished
의
▁mou
洋
There
▁official
===
reven
▁kn
ested
▁Schmidt
▁Spect
uh
Be
▁Must
opera
▁rename
▁his
▁р
ző
utor
▁lum
derr
▁те
Key
▁ang
▁sudden
▁Österreich
▁frame
▁север
▁apare
▁Edmund
FIG
▁suggestion
unden
ect
/"
ucky
▁Soviet
▁puzz
Will
▁"/
▁configuration
▁Portugal
jdbc
agt
▁Vie
inburgh
▁Ari
Ab
textwidth
Mvc
帝
▁thought
ni
ki
▁grateful
Collections
type
▁senior
▁ву
ῖ
▁denen
▁egg
▁Ult
vanced
▁doors
尔
▁"{
▁Zeitung
▁Sac
▁perspective
boolean
embly
ott
nic
▁заме
▁fick
▁np
Refresh
▁semantics
vert
▁traduc
▁ani
▁imperial
▁Sz
▁Integer
▁were
▁spread
մ
▁aos
▁musicale
Ok
▁роль
ah
xls
ibility
Native
▁tard
Ар
▁includes
ց
א
▁Spain
irks
inas
▁suggested
ITE
ThreadPool
▁liquid
roc
▁math
athers
Annotation
▁pec
ple
▁molt
oor
lauf
rå
▁replacing
▁Office
▁habitat
▁ши
agens
гро
▁lat
ció
igare
ศ
▁regnig
вала
▁building
▁Gott
unted
Pal
▁Dioc
▁Расподела
▁Pub
enium
vised
▁Bent
Search
<0x15>
ras
sw
From
azz
왕
▁degrees
▁roll
▁bil
iano
зе
▁worked
omething
▁shout
▁","
package
▁More
▁calcio
▁Jin
ymnas
setup
MQ
}\\
čen
mary
vie
▁food
lacht
▁Indians
▁slave
▁angularjs
ńska
▁jug
▁liv
▁Gor
webpack
iese
▁interfaces
▁Vict
▁tous
▁contradict
▁|
ས
▁ville
lacement
inal
▁understanding
▁findViewById
)$
lichen
▁forte
Login
▁engag
▁\|
▁DVD
▁proportional
▁Für
<0x6F>
OnClickListener
фер
skim
outh
▁contemporary
тво
▁giv
atur
▁demon
▁народ
რ
▁Basically
present
▁examples
▁comments
▁væ
CH
▁regional
anks
param
Tool
▁onclick
▁
html
▁efter
▁épisode
▁archive
ánd
heiten
}}^
▁тя
▁passing
▁ingår
▁Agr
ի
▁время
dbc
▁ec
▁HTML
▁Planet
erade
▁fen
而
▁Ле
▁'.
Enter
▁Pot
▁siè
▁fam
▁covers
▁estimates
▁flutter
▁développement
}}_
Art
Has
цій
▁{{
ux
▁tel
▁role
▁obra
▁cinco
▁matrix
hw
ads
чи
▁rule
гани
▁kv
▁distant
连
)$-
alis
мец
▁patron
actéristiques
▁unknown
▁сент
▁sci
aha
▁Neu
▁along
ograph
▁дія
flow
▁Publish
gele
▁Olymp
▁provide
▁Ново
▁{-
sim
▁Effect
▁Georg
▁фи
▁measure
▁CE
▁Islands
unch
<0x19>
ние
tras
wordpress
▁Astronom
ahoo
أ
▁\(\
ი
▁popula
>{
▁margin
idia
▁Petersburg
phal
▁storage
▁Î
azione
▁radius
стем
Res
▁IIS
UIView
avant
▁geslacht
▁belonged
▁Augen
▁Helen
▁ActiveRecord
▁counted
ibli
ournal
mier
ェ
ば
étr
▁implies
▁Abd
umin
▁Sund
像
teilung
nek
EQ
▁Italien
ข
uetooth
endency
▁ends
▁durant
▁flags
тник
▁share
ode
â
▁Mon
▁Colorado
▁critics
▁CREATE
▁tête
▁Comité
▁lines
▁који
lete
ил
hä
<0x18>
kop
▁ig
Bi
▁century
▁agents
▁Form
▁uniform
urb
мой
▁mil
▁TypeError
lef
POS
ril
inen
▁Crist
angs
bero
得
home
▁числе
aments
▁Además
▁concluded
▁dell
issant
LES
serv
lices
neh
oden
ods
цима
ffect
▁she
split
▁Elizabeth
过
▁instruct
iesz
换
▁illustrate
夜
uff
epsilon
 
werb
ąd
▁cone
ен
lists
EX
▁prin
Uri
▁Hel
▁même
opt
▁Ха
▁hid
ractor
UNCTION
Compat
▁maxim
istas
▁play
td
▁twe
▁NAS
▁ass
color
lij
anni
▁frat
▁Chem
▁Hor
▁memor
台
▁cot
さ
▁Си
рин
oper
junit
▁searched
▁stats
edes
ɒ
오
Behavior
inos
══
▁ceux
▁spole
win
バ
gebaut
ública
▁nova
▁Bi
▁Indian
англ
▁обще
Speed
▁Warning
▁физи
▁centre
('.
▁analyze
▁peculiar
▁Mann
▁Nueva
mix
STRING
Random
▁институ
uchs
▁ress
elled
▁Normdaten
▁Camer
▁искус
▁Space
▁Depending
彦
▁fare
▁Ay
▁repair
▁участи
Microsoft
oks
▁Archives
kom
▁compat
alpha
麻
MA
▁cluster
⌘
▁POST
мери
▁thy
▁further
nas
…
cze
icane
▁mention
▁do
仮
▁ihre
▁table
▁aria
▁packets
▁installer
ps
▁DATE
▁devil
licht
Alg
▁enough
▁standard
▁trait
irie
▁Anim
▁negoti
▁producción
▁dan
zess
verse
▁современ
align
▁samen
▁multip
DK
▁gruppo
aut
tha
▁miejscowo
▁п
▁calculate
ℚ
tain
▁télé
рд
生
kill
aping
~/
▁able
▁Pra
▁wieku
kaz
▁followed
▁gepublic
rimonio
char
Valid
dess
▁item
íd
chas
ée
년
jör
▁que
▁maison
edom
▁words
to
▁municip
ètres
vee
▁nouve
國
Multimedia
▁организа
ниц
▁Val
▁politician
▁Buff
ROW
▁powershell
▁Got
▁Jahre
odes
REF
iony
ding
书
▁bedeut
anych
▁Влади
atos
reading
▁processor
кая
▁mezi
chio
JAX
▁else
Iter
▁molto
łuż
hm
<0xB0>
▁Arist
▁Jap
primary
▁был
Espagne
stwa
Қ
'},
▁Berl
チ
atom
▁boat
▁arrested
ering
assign
▁Notable
▁pleased
rade
▁due
▁Madame
layout
▁zog
▁provides
▁advoc
▁incluy
Reset
▁Gazette
番
▁Одна
ört
hav
Endpoint
▁Marie
bü
▁exponent
▁Ener
▁cutting
▁Ph
▁Ela
sil
ossen
obb
▁estava
▁проце
▁zvuky
▁inform
▁medic
▁influence
▁Melbourne
tiny
▁subscri
Ă
▁misunder
▁IMDb
▁occasion
',
장
General
шу
ologne
▁compose
▁Anti
▁Rudolf
▁Live
▁Nas
▁Vladimir
▁f
▁Ring
icas
▁Ehe
▁Oper
▁diag
▁Hawai
▁scr
▁poeta
phr
▁Ген
is
onCreate
▁dátum
sero
<0xD6>
▁насе
▁suite
▁weights
▁викори
▁html
▁demonstr
tok
ap
init
▁Henry
▁ту
widehat
▁assemb
ște
<0x9D>
▁feed
▁diferen
oke
similar
hadoop
▁$,
ebb
Command
▁nginx
▁directive
}))
▁Oct
ex
this
▁Era
▁dst
%%%%
▁directories
rance
▁was
perl
шее
়
▁parse
ge
▁temporal
▁зав
Met
сси
▁año
>=
wx
▁colour
▁fluid
▁callback
▁individually
▁fib
bió
<0x5F>
▁FI
ning
fa
▁cul
gen
▁soort
Ἀ
ше
ares
▁ur
▁corpor
▁versions
elles
▁weg
▁graph
功
'}
▁story
▁NY
▁Cas
ザ
<0xCE>
▁levels
▁vagy
vé
liv
ron
mine
race
▁Пав
asts
▁zag
▁sah
lek
Lou
ols
▁persons
▁certains
▁Phill
chen
▁Inf
ensis
▁inaugur
Spec
преде
opol
/{
eral
angers
watch
▁wł
▁daar
▁move
iden
師
eling
▁(/
ug
ImageView
še
▁First
Sql
за
ws
▁Dist
▁finale
ství
▁Fe
PDF
ском
Action
▁außer
▁Still
arts
▁held
ches
▁numerical
mort
<0x0E>
pressed
▁Lat
ts
▁Wait
▁simpler
▁Vater
▁Ла
▁sor
lean
ATH
▁rising
ி
gior
ysis
▁Ис
▁ba
inand
istoire
▁extens
annten
oben
▁Jung
▁Tool
insert
▁esc
рови
[])
▁Fest
▁Tommy
çais
axi
▁development
AVA
▁Bund
Shift
ocz
▁контра
ended
ruit
rate
▁exec
<0xB9>
▁Publications
▁strat
▁auteurs
▁gh
gemein
▁Napole
^(
iling
antine
▁assignment
▁Adv
lan
ником
이
▁Author
▁slash
▁});
gu
▁Vill
Errors
▁não
}}(\
▁clar
▁hung
ían
▁Artikel
変
▁un
▁Usually
▁iter
▁Binary
▁ath
▁gg
enst
rey
ą
▁lieutenant
▁attach
▁~
mem
äler
vern
▁José
▁bois
▁allemand
cou
ary
▁Bav
фика
Nil
▁Manuel
erta
▁COVID
▁tätig
▁зву
▁Straße
▁prefix
кою
▁Miami
rii
eder
obs
▁lost
Psi
bn
▁constantly
пени
▁plut
▁Première
eqref
<0x00>
TB
▁reg
▒
*/
ln
▁parlament
onnes
▁breaking
▁cs
▁par
ViewController
)_
▁sli
ォ
varepsilon
ane
▁сту
▁please
▁license
ector
ictures
▁delivery
▁uint
▁gepubliceerd
elli
puesta
▁happens
▁tuple
Cap
);
neum
ächen
▁Old
▁why
▁consisting
attung
Comp
ʰ
legen
Mart
▁Api
engine
▁average
▁abit
untime
Username
eston
▁acted
▁Vid
ienne
mittel
Rect
hon
画
Runtime
iry
▁американ
▁missing
hof
▁appointed
古
дон
ington
Environment
▁exclus
fact
▁Tib
▁рос
▁unterschied
▁получил
formation
ati
ds
▁kw
śc
▁Liver
▁tiem
-------
hrte
▁Madonna
abgerufen
▁Sau
く
▁Hot
<0xE2>
der
▁Her
/**
ugby
чі
▁Fland
ensure
▁science
position
▁насеље
▁Format
Ő
▁related
▁validate
dep
▁hall
eses
▁judgment
▁verl
▁circul
▁NK
▁hole
▁normally
ienst
▁'@
▁jazz
▁stell
VA
ág
▁unf
oltre
iten
ührt
hidden
▁système
▁муж
<0x9B>
infl
▁reporting
▁chef
Co
<0xE0>
ENV
▁niem
▁Count
▁tutorial
▁Fin
▁generale
▁Karriere
▁fashion
UIImage
œuvres
рем
aden
▁pert
rze
▁Chicago
▁libert
▁я
ublik
ected
▁incoming
UTE
'>
▁sotto
▁Support
ién
▁sty
<0xEE>
▁Joh
▁crit
psi
▁formatting
uest
▁recherche
▁periodic
vention
▁Gay
Black
▁erhielt
▁MP
▁Boys
▁doing
▁Dresden
communic
▁zast
▁>>>
▁Bal
▁región
ports
studio
HI
▁porque
тех
lieder
▁mais
itted
▁grow
▁agricult
▁presente
▁альбо
ón
▁App
pel
▀
▁?>
▁French
quality
▁employed
stmt
cules
▁russe
▁young
▁Gard
<0xA5>
▁uma
▁grup
▁Mc
exists
hh
▁termin
▁są
ミ
▁minimum
▁muz
ര
▁<<
Section
KE
filename
agin
▁Fab
pec
▁Convention
ман
be
▁voir
▁tot
▁className
▁Lord
▁Weltkrieg
▁athlet
▁repe
гля
ок
▁château
▁hang
▁WM
'}[
▁Adding
▁thread
▁campe
▁colon
egov
▁feb
cias
▁Braun
дь
Ign
annon
apes
▁actor
enum
▁CF
▁tenía
▁educated
Mont
▁ainda
label
▁Wür
ut
ый
▁помо
Cred
▁railway
ktion
▁north
TS
orig
▁realize
itement
{|
ồ
▁Returns
▁Dynam
INCT
▁NOT
▁redundant
▁Deport
▁Peru
Ι
▁hous
lambda
(@"
▁Portuguese
elor
fois
lor
stackoverflow
Character
▁part
▁conf
개
▁Emer
ду
▁usual
Im
▁relative
Vorlage
▁rich
VS
handle
Base
▁mismo
▁Bridge
▁Universal
▁actions
());
▁paździer
▁Rahmen
▁serious
▁Draw
▁fought
Could
EF
▁zero
▁Whit
mile
slow
▁forec
▁Ор
oses
achiv
▁Sv
▁NE
GER
$}}%
▁inizi
▁virtue
atively
▁telt
addClass
рен
enth
▁Situ
▁Rails
▁svil
▁секре
Ы
▁теа
▁build
MAP
sizeof
itzer
▁streaming
itecture
Rad
Po
fold
▁Teil
ind
▁forced
▁Garden
DE
соб
▁enter
lip
▁kl
▁ant
▁ию
Det
pers
▁towns
ování
▁advise
▁комму
▁moderne
Item
équipe
iums
▁refers
▁matplotlib
omena
aching
ío
▁Bür
},\
▁Send
UL
▁connection
▁места
▁dice
örd
▁este
<0xE9>
etz
▁charged
chy
Wrapper
autre
▁Despite
AAAA
▁arbeitete
athon
▁click
▁ship
uz
ietnam
▁Director
after
Texture
▁Е
▁Moz
cego
: 
cible
ů
▁syd
▁statunitense
ப
▁baz
ристи
▁Uniti
▁>=
▁вой
cluding
▁spiritual
ea
ologies
▁responses
▁filling
anas
▁coordinates
▁Imper
▁curiosity
ION
tó
շ
▁condition
▁Lab
▁Jazz
stra
altra
<0x43>
▁@
▁tra
ision
ikan
▁кар
Watch
▁pione
für
▁уз
▁Client
▁racing
▁Columb
▁namespace
▁Gu
BASE
▁vol
▁Os
▁Within
▁each
tex
cide
cola
▁folders
▁frente
▁Frances
▁us
▁Украи
_+
Window
▁código
▁Analysis
▁bread
▁Link
▁Gary
▁Q
edi
▁старо
▁ran
jem
ред
NOT
▁fonction
▁href
▁které
Named
▁stones
լ
oreign
▁sensor
▁Table
mathfrak
▁gmina
▁langue
▁`__
energy
▁lex
Default
▁nä
ARN
▁Komm
▁Årsmed
▁sle
▁authority
▁bore
▁Location
▁lady
▁museum
▁volunt
▁polic
ník
회
Range
aterial
▁learning
писок
Alt
▁currency
inger
▁Connection
▁pending
-
шення
ative
▁Tex
iring
果
akespe
▁Elli
▁})
▁Sc
eto
PI
ulations
▁Nicola
developer
▁Hockey
access
▁entering
▁Johnson
▁hundred
olit
▁Number
▁accomplish
mount
gens
▁Quando
▁statist
nika
⁻
gin
▁picture
bis
▁Elisabeth
候
Fail
Child
mill
▁które
▁înt
▁Joy
▁hatte
preis
рев
▁aliment
shot
▁rem
▁leaves
arguments
medium
ろ
茶
▁чи
▁efforts
▁winner
....
▁Prima
arily
<0x87>
▁número
▁Him
![
asis
▁Suppose
▁Let
▁ple
Game
enska
速
▁UTC
백
▁toujours
▁canal
▁Oliv
imgur
▁trust
VE
////
▁patri
ѣ
atial
▁lista
nea
▁Это
ѝ
居
▁och
▁робо
▁vendor
방
occ
ские
▁Indeed
▁Kon
ser
▁populated
▁Mün
▁stycz
▁Lage
が
▁чо
ロ
▁führt
elijke
into
黃
▁impos
focus
RED
▁bat
▁radio
pd
')`
iah
zeuge
ὶ
▁он
ambigu
▁Accept
decor
▁renamed
anc
▁debugger
Bool
aylor
▁sports
▁Lexikon
▁stick
ogeneous
define
▁LP
ideos
▁reflect
subst
ані
Amount
本
▁endeav
▁guest
▁ejemplo
ilog
▁expansion
▁Ces
leases
▁Mars
▁spaces
▁Hub
▁Cinema
ília
хо
▁rock
то
▁bell
▁policy
ilus
▁Wis
sex
edge
▁dissol
erei
miss
▁property
▁gegründ
aum
▁isolated
▁Apache
▁z
group
는
ᴇ
the
ця
▁graphs
▁Hinweis
▁quality
▁Seems
▁references
▁також
uf
▁Amsterdam
Š
ativa
lagen
▁tons
Over
▁notation
ős
ому
ued
Obrázky
▁писа
pción
▁zusammen
<0x36>
▁modelo
Dra
8
▁municipality
▁Дми
bourg
ל
database
&=
]),
ств
route
▁possibil
究
▁produce
▁Га
▁Problem
▁Williams
▁обы
Bra
▁Ty
ским
ร
▁za
▁grass
aring
处
Products
▁bi
generic
▁dict
lets
ulté
▁Kat
Iterator
▁состоя
▁Alan
price
}\,\
||
▁fos
▁holding
ww
.~
bigg
town
ader
▁Niger
▁bath
▁burg
▁visitor
▁Station
lav
▁vir
чения
▁mud
▁courts
catal
enberg
▁visibility
▁Euro
▁след
ptop
▁ff
▁sele
▁significa
▁workers
▁актив
▁g
▁pressure
▁Prz
▁arts
cluded
▁votes
хом
▁Material
стре
▁Ре
▁Application
Prim
VP
útbol
▁deliver
decl
▁similarity
▁attr
▁might
▁eg
▁om
▁вопро
HR
▁Tout
▁batch
▁customers
Vari
▁év
uta
▁меди
▁Champ
▁vary
▁mientras
▁ought
àn
▁Star
abilities
▁Zo
▁evangel
ִ
▁Ta
▁Hessen
▁beta
vious
▁Iron
ම
<0xAD>
vić
▁wisdom
▁models
ühr
ulo
antage
▁follows
▁Ils
▁HMS
▁Deux
ńskim
▁Hon
chs
▁Luigi
▁acid
observ
ющего
▁ат
obierno
▁signed
▁guard
▁Holland
{:
ק
▁Adolf
<0xE5>
increment
itionally
acyj
▁initialization
▁Fußball
送
▁auf
▁years
adic
▁Fra
▁cleaner
вра
ної
imento
▁assass
▁whe
adores
icz
▁Sever
ciente
▁élect
▁primit
itza
▁color
ün
▁req
府
▁pl
ocument
amples
anga
чил
kazy
▁continued
ա
င
iu
支
▁charge
LENGTH
arded
irectory
▁Bow
дра
Constra
▁correlate
nica
▁ersten
ст
▁ново
ipeline
ibrary
ística
▁Issue
▁Career
jourd
▁société
зда
hot
▁operations
CR
Canvas
▁Alexandre
xs
gom
О
▁submit
▁args
▁provincia
▁beaut
Digital
вое
▁язы
た
▁reputation
▁clients
ancia
кт
▁referenced
▁př
▁Or
▁known
▁Vue
ząt
▁Integr
▁Rab
▁Que
▁compile
▁J
iej
▁arguments
cho
ographique
▁\(
стан
▁pocket
escape
sto
▁Through
▁getting
▁Given
▁capitale
╗
▁enqu
itate
▁Titel
術
▁username
lles
tern
▁idea
ший
ា
▁lst
▁enjoy
ában
ста
▁Brook
gate
▁contin
▁ná
▁sens
▁Comput
▁$[
bank
▁descend
▁"\<
▁gam
▁resta
▁roi
sb
▁Kevin
../../
"));
▁thoroughly
ov
elf
defined
▁muit
will
▁dollars
▁wanting
Export
▁pé
ो
▁<>
▁rectangle
▁Alliance
▁Git
▁Sta
goal
wedge
▁lange
irmingham
zk
current
▁Федера
▁improve
Excel
▁wyst
მ
▁Jul
▁Tree
▁ww
sec
▁rép
сла
ób
/%
words
>&
▁gir
card
entes
ņ
▁appear
================
mez
------------
скими
▁passwords
riers
▁ranks
▁Register
▁inne
▁helping
▁только
дена
▁number
soap
sprech
տ
▁одного
▁attributed
xml
▁transaction
ă
▁nahm
▁lij
▁documents
orden
Every
▁countries
T
▁Har
▁amid
▁planet
kan
▁develop
▁сотруд
む
▁etc
▁Nevertheless
ints
▁Ehren
ph
▁Drive
estone
istema
ian
heb
qi
Љ
rsg
▁either
Book
%%%%%%%%
▁Flash
▁oper
äre
history
▁колле
mat
ك
▁al
▁expression
ское
ikel
č
href
ु
blem
▁spo
game
▁Gaz
▁[...]
▁Terminal
▁championship
▁факуль
▁пре
▁author
▁secure
▁sh
ions
architecture
▁avaient
defn
<0x82>
▁voor
▁condem
apple
▁Nr
▁Sied
▁separ
ják
╩
▁spirit
▁damals
确
rir
ivo
anje
cht
▁felt
igung
hod
▁Trace
¼
▁costa
▁fung
▁septembre
gender
▁esper
▁држави
▁Newton
գ
▁earliest
té
▁Mittel
▁Cés
▁stato
▁kwiet
oshi
▁atmosphere
<0xA7>
▁wetenschapp
▁output
▁moments
ü
ig
▁Antoine
[
▁Reading
ност
nc
▁EU
▁password
she
▁listened
▁Compos
érica
<0x6B>
 
cept
▁twitter
xa
取
Che
▁kamen
▁октября
Ben
▁Had
oken
iop
▁acres
▁study
지
pmod
Datos
nten
▁étant
arbeit
exchange
iframe
хар
got
▁towards
▁ki
▁Units
write
vers
▁placeholder
ded
▁squares
ometimes
▁dere
tcp
lections
▁entonces
▁Andy
▁updates
▁X
▁sufficiently
▁Sierra
▁Screen
Use
proto
ք
▁commits
Ch
▁поча
▁*.
ese
рабо
▁fram
hd
insic
Area
▁theatre
▁пере
▁scores
ource
also
▁surprising
sey
▁Moore
▁Soph
▁чемпи
remove
Ret
istiques
zten
urt
▁friendship
▁une
wij
<0x45>
▁appreci
▁Peg
▁liter
ciale
▁comuna
\<^
败
<0x44>
▁Box
▁onto
▁Francia
方
▁Dol
round
▁trick
▁veces
atis
нах
้
▁curl
plus
▁government
дор
rek
zo
OD
dll
▁Delete
▁instruction
iem
fach
/),
LAB
bishop
▁наи
os
▁waited
▁President
▁nov
comment
Wait
nez
Switch
embl
▁finalmente
ensuremath
▁Kin
osoph
▁noviembre
▁hem
▁zona
▁aux
>)
▁pivot
IND
▁Pres
istica
ägt
endance
▁четы
차
▁hin
▁Ley
Api
▁horses
▁nature
noreferrer
​
▁dos
▁angular
▁quel
▁uploaded
esta
diction
anos
▁Aud
▁mn
▁frü
▁asse
iens
▁fab
+
▁Saison
Cor
ores
▁mét
▁Script
▁stepped
▁April
▁trova
▁imports
▁victim
▁League
eline
▁appeared
<0x90>
anden
▁pubblic
▁Tur
▁Referências
Also
▁bent
⟩
efficient
▁Kinder
▁bad
ismiss
bell
ría
gets
Accessor
ultats
▁Eclipse
▁LIN
анг
atr
▁wol
▁ears
▁Ос
▁важ
Gi
▁unable
⁶
▁treatment
ref
▁soul
▁interaction
zs
▁Den
▁labels
▁Fund
▁Eu
▁Session
commerce
实
inition
▁anci
▁img
▁két
▁sechs
₂
acu
▁Seite
▁sa
▁dieses
▁widely
▁%,
ua
▁Rost
Я
usb
▁schon
▁solved
чив
ис
../
▁overlap
ʼ
▁ook
OS
▁conhe
actor
▁Something
tbody
▁lead
▁Linki
▁switching
▁naval
▁expose
▁holds
ек
▁Nach
cord
▁Александ
Three
stage
▁допо
ację
вана
++
IST
fra
pply
жение
uts
▁Deutsche
Temp
lev
ely
▁côté
▁algo
息
▁Jos
ugo
和
▁mal
portal
▁accepts
ingham
▁Deb
▁heap
▁celui
▁Male
osi
▁пя
▁аль
▁gan
▁exhib
чер
建
мор
)+
inu
ゴ
▁partial
▁javax
AML
▁child
år
▁suspect
All
▁pad
▁filters
▁spé
▁tecn
dotnet
ucht
▁/
cita
jer
▁bitter
Response
▁eines
▁Рос
acles
▁полу
inus
ourt
▁enh
about
▁reuse
▁Dictionary
гор
▁citt
opo
▁Victoria
lice
▁NO
▁matches
▁копи
▁jako
calendar
▁recon
▁Its
ro
▁pick
<0xC8>
▁mechanism
Χ
ља
spot
▁Lista
▁cause
▁CGRect
▁platforms
ént
▁неза
▁голов
шка
▁consumption
▁Castle
▁tele
▁prez
"?>
Last
asc
umps
ِ
▁vr
▁published
matically
于
ział
licit
▁principalmente
stellung
тая
▁Neg
▁osc
▁communities
ánchez
arod
▁elles
▁складі
ў
▁Private
▁wonder
Tags
▁aver
▁Mak
▁Therefore
▁Tol
▁breaks
▁Familien
gif
▁rá
Fiddle
▁satisfying
store
--+
▁Mol
▁Follow
webdriver
cv
▁Social
해
▁Schwe
▁delen
pr
berga
▁};
▁utf
лання
▁<-
▁vorm
ają
▁News
eng
▁apache
▁lord
ვ
▁mac
▁Proposition
th
oni
èque
ahn
▁Records
球
▁bio
ismus
Π
èmes
▁Zak
▁показа
▁Selbst
ник
iously
遠
▁commune
mathop
▁unix
▁Herz
▁hacia
▁besta
▁música
▁nuovo
фициаль
▁Kent
stein
▁performances
methods
▁Ernest
▁mixing
eps
▁Constant
▁independently
>
MT
▁this
▁havet
ར
iento
▁temper
▁Sho
▁painting
פ
▁Lev
ley
▁Bar
▁presents
}).
▁values
mod
▁millions
▁ser
↔
ку
`)
‬
▁wird
лё
▁Fernseh
ules
▁myster
▁bag
сни
▁thousands
▁decla
▁Анд
▁relativ
prit
hell
тие
UST
msdn
ケ
▁SM
ensions
нд
戦
atabase
area
mente
不
ziel
ât
▁Luci
▁plus
▁nad
PRE
out
▁west
ungen
▁walked
▁Gang
▁`"
▁eq
▁unders
▁Cin
egen
iors
▁Распо
cial
▁joint
▁tabs
ishing
▁mor
▁vez
▁trem
сом
Complete
eteor
▁stdout
clk
▁historic
▁анти
হ
▁endpoint
ografi
asures
▁sierpnia
ové
ra
▁travers
▁loved
▁Perry
▁dével
▁transferred
▁Ferdinand
▁Off
▁Event
orter
▁finds
чні
▁kiss
▁OS
bos
lé
unk
esis
chester
▁significantly
Models
▁Dat
odot
▁giorno
amp
▁Butler
Running
azar
▁gal
Calendar
figure
▁гре
▁tired
▁општи
щение
▁arrived
▁nob
▁sera
素
▁соста
reibung
▁Rail
▁te
▁stranger
▁ros
▁gradually
ordinate
audio
SC
erve
▁td
▁bel
▁func
▁Volks
Stand
izar
▁under
▁ic
▁eleven
▁He
▁запад
▁Glad
alter
▁generalized
<0xA9>
▁висо
!...
▁dt
ව
')
Ob
你
arch
Tim
Fragment
▁climate
▁può
▁février
scri
▁simulations
▁ele
ateful
footer
дом
íst
inate
̂
éro
ash
]->
▁submission
My
actic
▁ist
▁previous
Ζ
wendung
▁Sh
|\
▁SO
may
aturday
▁eren
▁vorg
▁pron
▁unnecessary
動
Constraint
▁hier
▁December
paragraph
Come
▁Ми
▁entirely
▁infin
▁националь
▁переда
Object
▁Larry
іль
heits
▁fel
▁constitu
usch
(%
▁intended
edish
▁require
ゃ
▁Phoenix
omorphism
iments
terior
Alex
secure
▁bez
版
▁voet
▁Jackson
▁WorldCat
dx
каза
'(
▁Peter
npm
▁vie
solute
poly
▁dus
Σ
]{'
▁Schweiz
親
▁these
▁Singh
urrent
igh
unknown
▁Hold
▁númer
("@
▁const
file
Unit
▁BO
▁delimiter
▁Ned
堂
DIR
동
ill
▁slow
bled
▁Color
due
▁pushing
▁Warner
▁console
sites
Converter
▁Using
▁promise
▁skład
autor
??
hed
フ
更
̌
▁tar
▁concert
▁Joseph
▁homme
protocol
情
ysz
constructor
apers
ث
DC
▁cost
▁identified
▁mind
pgf
zeg
▁consultato
▁veel
Ş
Leg
▁Blues
号
cod
▁acqu
aby
ività
▁killing
▁certificate
ке
ulpt
▁Governor
▁spoken
ческих
▁gev
▁Stefan
Step
▁Villa
stylesheet
▁SER
▁Wikipedia
▁Sound
▁Gros
recht
ográ
Module
▁soci
osed
▁restore
▁produ
▁equal
/(
▁cargo
▁Références
▁featured
▁aggi
чу
▁augment
勝
▁Kore
▁уже
lasse
▁О
▁Jug
Cell
ême
application
▁race
ielle
▁forest
▁Batt
ków
visor
ulse
▁fonts
cza
▁пун
mis
known
▁Sql
dob
▁Enc
▁Alban
Clear
RIPT
▁rob
▁.=
▁sends
ceu
長
▁nac
▁XML
wait
ере
▁Bundes
▁stood
▁showing
▁huit
能
▁hij
▁inter
▁frequent
agner
▁eller
▁gre
▁mex
▁bapt
▁htt
év
▁wine
イ
▁contribute
IT
MP
▁Both
properties
▁composed
▁Prior
▁ges
Ε
ès
▁books
▁seeking
▁Street
▁yo
ove
edad
▁ф
▁również
▁ін
<0x9F>
▁rad
▁gesam
管
▁descript
▁czę
▁Zag
&
▁Bo
-----
owo
Exec
▁stories
uario
rough
，
▁гу
▁Александр
▁Wor
▁Magyar
▁nothing
▁Oxford
<0xFF>
▁fueron
ILL
yd
ormal
▁stamp
bit
▁nombreux
ρ
▁millones
▁Some
▁Eisen
ま
each
▁Ill
▁ан
▁gle
plays
ancouver
MB
lm
ational
▁spr
▁ú
Ser
await
▁Retrieved
▁anal
▁delivered
estellt
▁bör
-.
rgb
ú
▁conserv
distance
cls
Autom
ieu
▁Guerre
вар
Est
Web
▁ga
▁dels
▁Ori
▁kwietnia
aval
enses
Dispatch
Cur
Day
ulos
âge
条
▁paper
iko
▁cond
▁Rock
▁friends
ним
temperaturen
yect
▁mesmo
▁redund
▁arranged
▁Arte
▁pitt
ll
CCN
▁Станов
Loader
arte
双
▁controvers
▁деся
▁Ху
无
utter
skap
GG
▁Ев
▁диа
▁i
▁граф
▁Nad
него
.«
жной
▁pela
▁knowledge
▁folg
▁moreover
ayer
berry
state
▁Musical
▁která
▁sparse
▁opinions
▁Items
isti
▁hour
pro
▁rolled
цена
▁launched
▁comune
iß
▁Survey
▁поэ
▁conver
ства
▁вер
▁также
CON
▁рай
mathbb
Trace
▁dropdown
▁Ord
oca
▁года
atorio
getElement
scan
⁸
лище
▁авто
▁Hist
VB
▁Assume
libs
▁Все
▁pointed
lob
fficient
▁Rand
▁chief
▁Buffered
▁meaning
x
▁tail
console
iques
js
ogether
▁rational
soci
▁mediante
products
don
▁Йо
▁época
▁hö
▁row
▁sue
▁distance
onk
▁;
▁reject
▁ll
▁tät
доступ
DATA
▁confusing
▁Studio
Date
Keys
▁AV
▁online
▁Ray
▁pot
▁Olympic
▁Break
▁ich
变
dist
ante
rane
.(
sob
▁closing
etwork
▁intér
▁fuera
Č
▁Harr
▁Arab
▁array
љашње
▁Development
▁AT
tp
Proxy
Doc
▁energ
▁gen
▁facilities
▁enumerate
▁laws
ase
without
National
pez
ʌ
▁%
▁deb
▁Enllaços
imation
▁vin
isches
▁committed
ír
Dist
Feature
дія
ttemberg
ímp
ruption
▁ssh
▁tier
▁recens
▁edges
▁Program
▁optimize
▁{};
▁honour
reason
▁rapide
▁Bild
▁Джерела
▁Vor
▁categories
▁personas
ining
▁filme
iral
▁Tob
▁Lex
sett
▁stör
▁yeux
ero
▁Atlanta
▁sever
▁mount
attend
alf
osci
▁jump
▁Virtual
confirm
▁после
ieren
dimensional
▁філь
▁strugg
ére
▁Pool
▁exports
ha
rages
By
NET
▁кан
▁Sept
여
▁byly
ุ
tom
amarin
▁Burn
▁inferior
▁techniques
extra
▁em
❯
amt
ɕ
▁lag
руд
▁joue
出
гов
▁pou
▁brid
،
▁patients
udo
▁début
oused
Comple
▁Он
▁built
▁grupo
▁см
bose
▁leader
▁car
rn
▁rud
orient
群
IB
▁tied
ño
▁lear
▁sheep
▁somet
α
MR
▁Stevens
▁demonstrated
▁amaz
aram
oted
âte
chsel
▁finns
▁Corporation
▁intellectual
ção
▁vain
LINE
▁stupid
▁pau
▁regnigaste
传
▁Гер
ô
▁Son
гу
▁receive
▁roots
▁Gé
ord
stre
▁packet
posts
音
▁Id
▁César
oport
▁copied
inction
▁;)
odia
▁tej
uliar
▁harder
▁famille
▁correspond
▁Assembly
▁sq
▁tmp
▁skin
ologische
▁slov
▁His
<0xF8>
▁Print
▁глав
▁genre
▁tör
▁▁▁▁▁▁▁▁▁▁▁▁
va
▁sep
▁stations
ἱ
Address
random
▁YES
PHP
▁Cleveland
▁destruct
Fre
↵
▁Hoff
▁клу
Ω
▁executing
▁gewann
midt
▁knew
▁contact
例
▁instinct
▁bro
▁stolet
irect
▁немец
select
▁JOIN
▁hrab
▁proofs
返
plom
▁UITableView
▁PDF
disable
ône
Utils
ifié
GC
WOR
continu
thesis
▁legend
‏
oration
rug
▁Mey
vt
▁Nev
▁fig
▁университета
▁identical
▁moder
▁Egypt
▁deel
▁efficiency
▁Pablo
▁feas
▁pseud
▁exempl
四
anze
ₗ
▁calculated
▁hard
▁maior
mit
Th
ICE
▁Mother
ˈ
请
客
ágina
▁rare
ර
Radius
그
fly
▁desp
▁Bei
łą
▁agreed
emet
WHERE
▁general
▁shadow
тому
▁males
▁XVII
▁timing
▁princi
Æ
▁rgba
éal
ąc
atter
▁Main
▁guer
ött
дова
_{
▁Python
czy
▁pac
▁caso
▁succès
ི
▁polít
▁roy
је
ker
▁slä
▁priv
лу
▁lives
大
▁Jur
▁appropriate
▁ordin
"
▁pier
▁findet
▁constant
▁Heil
▁trif
▁сер
▁literary
añ
xic
center
▁Guard
weg
лён
▁sag
▁gates
▁received
zew
há
egyzetek
кта
▁git
▁szere
emes
Organ
LinearLayout
▁импе
▁lose
нами
itat
▁checks
▁рабо
цького
▁smooth
Up
UND
^^
ァ
].
▁Marsh
▁Vas
▁common
▁зо
ovo
lire
▁gentleman
▁disturb
ora
▁lie
▁hosted
▁кораб
▁turns
λ
▁Async
桥
▁)
ї
▁Free
▁mess
job
choose
▁ancien
▁выпол
▁пу
▁рів
▁causing
▁Tra
bur
▁См
▁iterations
▁leg
▁officers
▁Else
ispecies
▁др
▁Low
▁Kommun
▁кур
▁retain
▁Deze
▁cou
му
<0x99>
▁annot
▁Bret
napshot
▁mostra
._
▁фа
▁semb
▁нача
▁sound
over
▁Cont
ft
plates
▁мо
ystem
▁affected
▁feedback
▁consent
lie
▁Mine
▁элект
▁visto
▁View
▁efect
▁первый
act
▁sold
▁Cependant
lige
▁must
▁тур
▁gens
country
Culture
loyd
RC
Runner
▁direction
ответ
hyper
▁pr
Pro
▁entrepr
generator
▁animated
身
ified
▁actual
▁email
rieb
▁Middle
-,
▁todas
▁dismiss
▁людей
守
▁Te
Just
▁budget
гла
Parent
▁restaurant
pie
ALL
roy
▁VII
▁As
▁Front
▁`<
дер
engers
▁Arizona
開
▁hierarchy
frent
щи
▁enfants
social
▁`#
izio
ner
▁within
▁utwor
▁verschied
Rich
kv
LI
demic
▁performing
ская
льно
Statement
▁Move
▁bran
▁bill
дол
▁economic
▁Ende
▁pose
▁execute
owie
▁financi
▁Gordon
▁апре
altung
▁сим
osten
▁ListView
▁medicine
▁Hudson
ську
чита
ymn
▁rival
Processor
payment
▁`&
ettes
▁assigned
▁greatly
ból
▁methods
ye
symbol
▁implicitly
ivent
▁Descri
closed
entication
rank
clock
▁gennaio
▁Charlotte
Form
endant
]).
▁virtual
({\
ぶ
▁Während
ager
▁zp
folge
▁Ressources
Schema
▁Dow
NT
▁Nicholas
▁ped
▁Line
▁promotion
▁Germ
▁Hash
▁Foreign
▁SP
▁fier
地
vm
▁fo
tn
▁ray
Box
▁implemented
▁Council
step
ún
▁Аб
移
iedenis
ี
Some
range
▁Years
マ
²
omi
skich
ova
▁Beautiful
lications
▁kil
▁layer
▁значи
▁этой
▁Wel
▁went
▁апреля
▁duch
δ
▁фі
▁fills
▁mere
▁ut
▁FM
▁ow
▁Palace
äs
▁subset
▁Russell
<0x2F>
Tw
▁debut
▁Give
ualmente
eing
agyar
▁room
▁dinast
theory
мирова
},{
γ
内
▁seit
▁leading
raj
▁spraw
b
alias
ások
mp
▁Baron
▁персона
▁francesa
▁ME
adapter
▁Bert
arto
VO
emen
<0x6D>
ver
рон
total
▁industry
▁tack
▁okrę
は
Label
▁DIS
Recogn
▁Janeiro
▁годов
བ
menu
▁рус
▁вій
▁pré
▁databases
为
ഞ
▁из
ზ
ain
Send
ermo
▁sl
▁eas
▁профес
DEX
▁cura
▁Ze
▁pen
▁post
▁Quint
♀
▁independent
▁Anfang
▁advantage
assen
▁criminal
▁dogs
式
level
оне
▁pc
ween
istent
▁Pero
▁conduct
▁assistant
▁Gab
Admin
▁França
ID
exit
▁Ark
_.
┤
▁that
ấ
▁G
▁hydro
)\\
▁&=\
ハ
dia
▁tec
재
adi
▁important
▁investigation
▁Arc
commons
un
▁mismatch
ʿ
▁Metro
▁Чем
▁belongs
binom
▁$$\
▁Серг
▁recht
▁toolbar
▁laid
▁zm
stood
▁vess
▁drie
▁dock
rolled
▁conquer
aland
лович
▁Na
▁Ressource
rvm
));
▁Like
nab
ній
fre
▁save
▁нај
▁simplicity
▁Memory
/@
▁Reference
kor
cip
▁whis
▁compet
▁Linear
▁Kar
▁couldn
▁simple
esa
▁junt
平
▁tears
▁struct
▁Adri
ค
▁прав
choice
▁byte
⊢
ispiel
선
▁disp
▁jel
▁Основ
IAL
▁gravit
▁clusters
▁toe
▁arist
▁business
▁Ist
▁dual
aye
iew
cadem
▁issu
▁-(
▁Ted
ictionary
▁hor
YPE
uj
repo
▁Reyn
▁sols
ience
▁arbeit
нице
▁operators
▁electronic
сей
ranch
phase
▁AN
aso
▁conne
▁datas
▁consistent
<0x2B>
gr
▁materials
ależ
▁Fut
▁грома
тро
ang
volution
▁kr
▁implements
wür
]*
zeichnet
ature
distribution
uga
▁census
˚
▁Kno
▁u
hibernate
▁juni
oc
▁hasta
ternoon
дій
▁adopt
▁="
uben
▁ih
▁Х
:/
ersch
▁academ
Operation
aussian
▁Fußballspieler
rat
ം
▁hecho
▁twee
ordinates
ification
DataFrame
▁Gli
associ
▁Eva
ན
nitt
usz
▁answered
▁concl
▁fut
▁hol
▁[\
Customer
quis
Master
▁perché
▁verb
宝
▁ша
▁Pfarr
uther
▁уби
▁divine
▁Tem
Die
kou
▁demanded
片
▁ligne
▁становника
▁зна
Music
▁Leopold
ee
oir
▁Rafael
▁els
some
▁furn
DI
bek
▁service
▁Wang
▁south
utsch
▁lég
weak
()));
▁fun
▁opposition
▁forces
▁aston
anus
▁Lem
▁Rights
such
znam
▁store
ance
▁Kid
▁повер
iformes
óp
text
ном
ély
▁gouvern
▁nearest
▁pros
hé
▁upper
Normal
▁Bay
oust
▁награ
лер
ivas
slice
▁manif
▁establishment
▁Silver
▁cap
▁конце
▁holy
▁Found
▁éx
Info
▁foreach
▁Budapest
Stage
ལ
错
▁игра
▁Anders
▁Cec
▁Иван
▁Mig
▁abandoned
овая
Allemagne
Oper
hold
▁Guer
equ
]];
▁cells
Url
èrent
ำ
▁aussi
╝
▁music
andenburg
ā
▁czy
ـ
viation
▁Meter
▁Из
▁Daw
lain
ieder
errors
专
<0x54>
▁Document
{
▁rows
▁Iran
imet
[{
▁ali
▁castle
TM
Ä
raction
horn
ellow
стоя
▁digit
▁eredet
float
{-
Py
▁iron
▁graduated
Img
address
▁Kennedy
ế
▁Scroll
▁sont
consin
▁sy
▁Ін
▁Of
▁creating
ollow
empl
▁GitHub
lö
народ
▁negative
са
jest
ά
▁impression
erea
рё
▁og
]`.
▁represents
▁Sent
▁Verwalt
▁Presidente
st
?](
▁fis
▁Dre
jou
▁estadoun
▁Install
▁],
licates
岡
▁effect
▁publi
ael
ambiguation
Player
){\
▁Perl
l
▁while
<0xE7>
▁succeed
▁huvud
▁pointing
/$
ommes
mot
Contract
▁corn
▁оби
street
мы
▁Shared
ces
fig
hus
yc
▁estaba
August
FO
сков
циали
▁Moreover
ogo
▁Tar
▁dav
▁viene
▁just
▁siège
dst
rangle
▁після
▁Cav
<0xE4>
Node
▁Andre
ubernetes
▁diffusion
▁river
ither
▁area
жно
inflate
▁pin
▁Month
▁Page
▁commut
Op
▁of
▁unsigned
alg
▁Government
▁estimate
ertain
▁variant
IV
ôt
cb
助
▁thanks
▁Make
▁tarde
jd
▁rooms
ands
▁controlled
xe
▁Hend
▁där
▁señ
bibli
都
ilia
CV
DS
▁odd
See
QUEST
ply
▁diesen
▁bug
reland
located
groups
rip
"},
cussion
▁incred
▁flav
▁Ce
ients
▁uri
▁yourself
▁Twe
ゼ
<0xE3>
▁fled
▁manage
▁dej
NS
ounds
able
oo
▁liga
pecially
⇔

▁Sea
igs
ℤ
▁То
stroke
▁exam
▁inf
▁travail
▁can
="<?
▁Return
▁Articles
▁vita
erne
▁distint
▁část
кс
▁constru
rebbe
▁japon
▁forget
▁dynast
стр
▁Kur
Long
пов
ulator
чня
ourg
oom
▁temp
▁Ga
▁mobil
Stream
endencies
és
мир
▁Board
cija
ateurs
ette
▁kin
__
▁ihr
bars
▁Sou
▁grave
▁rein
year
дения
久
Down
▁Fish
identity
▁miser
▁document
▁тем
▁May
fern
ссии
jsfiddle
sf
▁Sitz
▁LIMIT
▁tensor
▁рас
iel
▁enorm
▁cleared
tol
=`
▁offset
esses
▁threshold
▁Cab
▁Brown
öst
▁ou
▁faithful
▁Cob
▁nouvelle
earch
▁Leben
▁tongue
་
▁Polit
▁Null
cache
árt
мии
▁irregular
▁FC
okat
geb
▁États
▁Unix
▁ви
ния
}",
ási
ummy
▁сайте
Da
çoit
▁авиа
▁occurr
▁Children
Rate
Nov
)--(
▁Eq
▁Ran
▁occur
▁Eng
=%
мест
▁bean
РСР
▁valu
рое
ouvel
▁Californ
▁fifteen
pret
ifiz

ce
▁perhaps
Hello
▁fin
▁depuis
man
dec
▁кино
グ
∘
▁района
▁Comple
endet
▁simulation
▁Happy
▁wise
▁Marc
”,
▁fant
lare
aku
▁Po
ván
▁absol
GET
▁pra
▁$_
▁`'
▁Å
ativo
hardt
▁ellen
Resource
▁Sen
▁considered
▁confir
▁Path
ി
▁wie
▁scroll
▁bu
тера
rial
▁Franco
▁programs
ppet
▁Hoch
actual
стрі
▁onClick
▁листо
▁submitted
är
ict
*.
▁główn
▁álbum
▁Ком
ポ
▁Lu
seite
illet
imb
▁indust
Person
▁Ehr
ific
▁afternoon
▁Trop
SA
izia
ters
▁degli
ової
▁documentation
irat
nect
scher
▁Independent
▁Congrès
жда
▁pill
动
▁Me
▁Life
▁resulted
▁apr
vidia
Mapper
仁
此
WE
plane
→
▁certific
ara
удо
/`
▁promote
roid
COMP
▁Render
▁Ne
essage
▁Rica
▁коми
aft
osph
▁inwon
ioned
äß
▁c
▁occurs
▁badly
▁Gi
▁enters
Prop
▁exper
▁ну
▁fict
▁discover
▁decode
schema
▁oldest
orum
▁from
阳
▁Es
bow
verkehr
▁deux
measure
▁Seine
ł
▁Reform
ura
▁joined
▁Kriegs
▁Pale
▁saint
LOB
߬
▁Jim
▁mur
▁Миха
=="
ɯ
issions
oute
grade
änger
屋
ć
iker
▁faith
▁während
ʒ
TV
▁Names
▁voy
▁owner
ом
▁internacional
>";
▁година
бен
flat
public
▁invalid
▁Staats
没
ktor
▁vue
▁cic
льных
esti
err
▁proved
▁Create
berta
onomy
mq
▁Parti
▁Set
▁hyd
▁Nik
▁bý
icago
▁Angeles
▁wij
▁grown
▁==>
▁eeuw
IC
GM
erk
京
▁America
ى
mar
ently
prev
<0x71>
▁scient
tei
autorité
ancy
▁expensive
▁ourselves
ING
▁bet
▁product
children
▁surg
izione
ray
▁rav
zel
oto
▁Lang
apache
▁shell
▁absence
▁distinguished
▁diagonal
ption
▁установ
what
rees
рах
━
▁oh
時
ædia
demás
usalem
<0x1D>
▁conject
▁lingu
▁anche
agu
because
▁Arnold
≡
‒
osc
▁probably
▁häufig
ivalent
merk
▁ран
▁między
▁medi
лок
m
halten
emento
▁Flora
leben
▁alive
idade
▁titles
▁sant
▁coordinate
ega
▁rus
mass
▁SSH
▁indices
osh
férence
▁_)
Hot
▁seiner
▁plugin
bits
▁History
<0x01>
点
дів
юза
إ
Mouse
ْ
ines
▁beho
▁возмож
ляр
board
Region
▁Load
▁faces
▁öss
силання
rained
▁adapt
▁Stanley
ithmetic
шли
▁яка
typen
▁genius
▁sister
▁dét
▁mes
▁swift
cher
▁оконча
▁folgender
▁outras
▁metrics
▁Véase
ancing
________________
န
antly
|}{
▁Fun
▁även
只
▁verd
owa
▁region
▁Hen
▁Colonel
▁слова
.__
ornal
▁tedes
▁Bras
王
Liter
▁sie
▁находится
ceae
aucoup
▁Julius
bon
▁wszyst
▁mehr
▁planned
ock
▁king
▁obviously
anton
atting
▁systems
▁Hung
▁інших
故
baum
atal
▁Corn
▁erf
▁Friedrich
чних
▁Gesellschaft
TIME
▁Adam
▁Mayor
▁км
ൾ
▁Rat
▁Dire
rí
▁placing
▁money
モ
viv
ame
ccess
▁uk
mannschaft
▁Hi
▁Matt
▁Regin
▁świ
ल
String
▁surely
▁Gemeins
▁campus
▁Orleans
▁Oklahoma
▁disponible
Ah
вые
▁anticip
▁compatibility
▁другие
▁армии
cov
adel
едера
DO
▁template
Place
▁Western
च
<-
description
▁cours
▁відо
▁женщи
tree
▁Properties
▁hogy
omm
(*)
▁behave
▁powiat
iero
ordnet
▁associate
▁Buch
▁Ве
▁college
;</
▁secondary
▁fil
▁Neb
browser
▁Times
▁apart
itare
texttt
▁zewnętrz
screen
py
▁progetti
ier
▁Swiss
✓
ic
▁segments
itas
▁forme
▁pén
▁Fichier
记
▁FALSE
рус
pson
▁collected
oul
▁composition
▁уче
▁pels
ز
▁alternate
▁executable
▁kraj
▁reserved
Allow
merce
poque
▁§
negative
<%=
▁difficulties
م
▁Krit
▁hur
▁listing
Light
Fl
лки
▁UIView
▁giant
uber
▁clock
ன
雅
▁moi
▁hex
itudes
▁separation
oment
uster
bach
▁aggreg
▁Ti
шов
▁jog
▁Giov
Post
olia
▁информа
icle
aml
▁äl
ждён
▁veh
▁осу
ев
▁Pla
па
▁ford
ok
тина
ur
струк
adratkil
platform
▁fino
tembre
LAY
rown
ament
▁disable
ush
нення
▁Heinrich
avigation
шёл
▁nouvelles
サ
Result
ensor
▁Stat
▁Republik
▁crack
ított
ondissement
▁cha
▁draft
ceil
▁Latin
жи
!,
▁Sammlung
environment
vere
estro
▁Medal
ровано
▁грудня
********
lessly
берг
▁UK
resources
▁Никола
▁pó
reduce
▁Orchestra
до
▁pure
▁counting
▁віці
▁опреде
eken
grad
Pressed
бан
begin
<0xAF>
ion
udio
esp
▁apps
Ма
▁квіт
auff
ourn
Cloud
▁bibli
NL
artifact
▁choices
imon
▁Bush
▁parentheses
isc
пли
▁talál
▁seinem
▁camp
>';
▁highest
oplus
Inv
▁ry
▁Centre
uma
museum
▁verte
▁só
▁rendered
▁\[\
ffic
colon
▁Wrest
渡
^+
urs
▁années
▁пові
▁prakt
▁Statist
ansen
ity
▁Roy
▁doc
▁copying
ędzy
▁think
▁да
handler
älle
▁dro
UTC
▁Comp
▁translate
▁seeing
keeper
▁shield
▁européenne
▁május
▁поли
Servlet
▁süd
▁losing
)")
ik
analysis
ђу
aría
зен
itori
▁Am
▁International
▁mark
ax
▁sees
itats
\}$
lius
änn
alin
▁substitute
PS
▁charm
format
▁Place
iesen
▁making
oure
▁Auth
▁hint
something
康
▁doubles
▁ку
ть
elin
▁před
▁tram
ள
getValue
specific
.—
▁stuck
▁До
▁corrected
▁velocity
▁Mind
子
▁welcome
zte
▁України
iner
▁Salv
▁search
▁Tras
ccc
cli
▁dom
gui
▁Loop
▁delayed
▁denoted
Att
▁centro
Na
▁Pascal
EXT
although
▁During
▁army
▁Kultur
modifier
ώ
▁azure
▁gew
▁dear
ків
∥
▁Before
▁jelent
▁approach
rating
▁aprile
dex
▁questions
▁Sex
▁kB
all
▁troops
▁вне
prog
oding
▁mongo
▁желез
чний
VIS
alla
▁extreme
▁provider
Debug
ры
▁został
▁poss
chr
<0x6C>
▁werk
urch
▁conditional
▁Sant
▁депута
fer
▁dob
ged
▁rural
▁Cry
▁scrolling
▁Internacional
▁Magazine
falls
****************
▁къ
▁Официаль
▁Cu
▁Bell
▁Minn
roller
▁php
ück
▁<
ча
▁World
▁artifact
пар
▁surtout
▁matter
▁virt
▁Close
▁Attribute
owan
▁remporte
▁Gre
▁comfortable
上
▁returned
zas
▁founder
影
iera
}^
▁frames
Wikispecies
▁easily
常
▁team
▁osob
▁dep
▁Mur
них
/.
anto
▁CL
▁Bru
▁expl
four
▁méd
Brainz
%,
▁arrive
▁GUI
▁ос
▁Wing
зова
▁Queens
▁reasonable
▁Mountains
▁Et
ización
ians
password
ignes
▁$$
▁год
Namespace
ittel
Point
cles
▁signific
ára
CAT
▁befind
stronom
▁Weg
ო
AW
btn
веро
▁appe
▁Ligue
ison
▁ordering
ritten
▁half
lique
Pred
▁detection
rock
▁Belg
▁Express
▁deutsche
Ē
▁rapidly
▁Джон
▁Prem
▁adjacent
▁Тре
info
▁Identity
▁polski
tx
▁вз
▁rep
▁interactions
▁Einzeln
▁nast
▁Observ
stdio
SR
▁ganz
▁scope
vo
▁slight
▁CA
ိ
itar
▁folgenden
fo
jet
▁Health
▁constitution
OB
▁Less
ijst
▁cut
Nodes
roll
ступа
▁sist
Fun
▁pixel
▁poste
▁FIFA
▁ELSE
▁ucz
▁pipeline
itude
LIN
ција
▁territory
▁avoided
▁indicator
Attr
oned
▁+=
▁sorting
▁Taiwan
dk
▁Isa
urz
стви
▁universe
etto
▁Ira
▁kindly
▁Ger
▁Pers
${
▁estas
anza
vare
Mapping
тных
──
▁cru
ruf
▁having
ipping
▁we
ề
rier
▁równ
ists
▁Cru
CharField
▁Dic
{{
icano
ными
▁Cand
่
▁Нор
▁Walter
▁navigation
▁round
cloud
▁остан
▁находи
▁/>
▁presiden
SN
{}
▁Datenbank
ney
ires
▁svg
Method
▁Ress
▁Bang
▁);
▁anx
▁худож
ニ
▁British
▁сти
▁asc
店
putation
▁NBA
▁Selection
▁explos
▁Electric
▁répond
▁Москва
encia
▁Proof
gcc
валь
▁enfer
▁sw
▁ess
▁фон
▁conscious
▁змі
clud
▁reven
▁percentage
▁Gregory
结
▁heeft
includ
scheid
▁polym
onel
▁Law
ellschaft
▁dut
acy
▁leave
ètes
▁Width
istic
▁weer
त
etu
Should
▁yeah
▁Nature
md
Failure
ніципа
▁Pol
嘉
▁jquery
slider
▁inhabitants
emo
On
▁test
und
POST
▁heut
▁premier
▁symbol
▁});
ву
▁awards
ья
▁estar
mond
ύ
▁to
▁pay
▁comand
бой
↑
▁cow
▁accused
град
quence
="{
ollary
Loaded
▁space
▁grat
▁часто
design
fog
с
▁spacing
▁september
▁categ
▁který
<0x33>
▁Bolog
草
ère
ül
▁реги
▁fingers
▁diameter
bare
▁echter
▁Nä
че
ici
ス
▁у
▁alert
▁apenas
▁Act
OP
▁brown
▁convergence
created
▁effort
cook
▁chr
▄
▁dash
atori
▁fault
▁лет
sdk
MW
▁extracted
enc
ктора
yml
under
prise
рист
request
▁mk
posa
▁części
▁Party
VD
otic
ancer
luss
▁resol
▁Remember
find
▁Pho
<0x81>
▁савез
annes
▁груп
hide
▁cres
iska
\_
Constraints
),\
▁expedition
▁raise
▁delegate
InputStream
endi
▁industrial
▁mån
▁Burg
▁auxili
▁clever
urk
▁given
▁ст
▁Su
ilty
raf
ं
▁Бело
cite
▁peri
éricaine
▁GB
nell
▁Beck
▁kre
zip
iers
▁Daily
gemeinde
‖
▁Caroline
▁Bahn
▁wore
ality
ßen
umph
▁Zone
▁Upper
▁anywhere
fund
▁Ан
acters
▁occupation
唐
▁remaining
▁Roma
ule
Hen
▁fest
odos
≥
col
▁conte
▁Hunter
étés
ZygoteInit
▁Legisl
▁`.
▁Ocean
▁él
ką
▁Архивная
.'
▁следу
ър
windows
▁Isabel
▁wife
▁solves
▁pieces
▁heures
olf
▁erano
▁idle
▁tro
gru
AST
▁dém
requests
Go
▁loops
cion
atic
ifen
神
▁воз
indexPath
EAR
▁LL
黄
▁besides
▁Debug
▁guys
flag
ѫ
dy
▁token
▁Reserve
posta
▁rings
们
checkbox
▁Conseil
zett
▁Benjamin
craft
▁proof
▁managed
▁rius
show
чник
▁east
▁Berg
▁stop
ced
▁sulla
ד
设
▁bind
▁Zar
Ź
ordo
lês
區
▁Abb
▁Dopo
▁col
▁rencontre
▁Wass
▁Raum
background
лей
gesellschaft
▁był
▁Tang
ische
car
▁Campion
▁Daar
▁Bad
tons
ремен
ță
れ
▁sollte
жении
▁\)
▁relate
▁clothes
▁inicial
secret
Foot
owany
EG
coordinate
ordin
▁multiply
attribute
▁Przypisy
зем
▁husband
▁surrender
▁necessary
сту
ít
▁Ма
▁wir
customer
▁april
Home
▁tant
reib
ouvern
▁meets
万
'.$
▁Anto
iled
ظ
▁årsnederbörd
▁erre
łu
Lo
cols
▁pitch
▁propag
▁incorrect
ють
ύ
▁нав
▁población
die
ῶ
FA
▁Field
·
▁Stand
uses
mozilla
▁filtering
]))
ographie
▁coffee
pression
▁dip
▁react
swift
▁alb
))\
▁stayed
▁postal
ited
metro
வ
유
▁gentlemen
▁##
ція
*
лено
▁Icon
系
Record
▁hip
▁reliable
▁ups
▁Appar
▁look
IE
▁merchant
▁bring
▁suffer
Uni
▁Scanner
▁Eur
▁Asian
▁obec
pat
▁Curt
ף
disambiguation
ission
▁Module
ython
▁impossible
▁▁▁▁▁▁▁
{[
aud
Overflow
▁Roberts
▁Down
another
▁cav
▁tener
▁ihrer
owi
Params
▁reli
SION
▁estud
▁tur
▁Fir
▁MTV
▁Soccer
ierno
pid
▁fundamental
pit
▁Century
sequ
▁background
▁Städ
▁event
▁header
Lines
▁compl
ying
Rest
lesia
▁α
합
eper
width
▁сов
photo
ätze
▁gene
import
щё
stav
кан
ização
ále
▁général
пример
Diff
▁mini
▁interest
▁Verm
Timer
▁Та
▁Bon
▁Chr
onomie
leaf
▁undefined
famil
题
}
▁involving
▁wireless
Parameter
▁attend
gew
▁Depuis
▁flo
▁wouldn
tb
।
▁occasions
comp
▁accepting
▁Cross
коно
▁expecting
akt
▁Del
▁№
▁nos
affen
нок
▁Blan
<0x07>
▁Group
OFF
}\
▁Case
ị
▁Nash
untu
▁Moh
rar
="@+
▁rapp
З
ár
▁Einzelnachweise
▁files
ycz
ype
▁сла
BU
}_
▁regularly
▁Liber
production
▁destination
▁kal
▁stern
ень
▁kao
▁Op
。
▁processing
▁compare
▁interpre
▁Terra
elte
dictionary
ն
等
▁German
告
▁cmd
ród
erme
▁WCF
▁Kra
田
▁clip
views
/-
atoire
▁Marshall
▁від
明
posed
`'
ờ
URL
mail
▁ор
ères
▁Cop
▁Discogs
nou
phas
▁company
▁puis
▁Wales
湖
original
▁private
elle
▁listop
Ц
uler
Exists
andbox
ciu
า
▁exact
blog
eno
Device
▁Tig
manifest
▁Fourier
▁Боль
previous
▁eind
icos
▁course
onds
▁suc
том
▁Orange
otion
aste
▁Hier
▁Masters
ughing
Status
▁joy
edit
кли
▁мм
▁SY
¡
▁jú
édé
▁Span
根
aws
osa
▁narr
férés
▁silver
▁<?
▁necessarily
▁Betrieb
▁Sci
менталь
](#)
\}
▁incre
▁Че
RECT
▁faz
▁thorough
uba
▁Dans
▁Selected
▁troubles
Hub
onso
ह
łącz
props
](/
▁head
ensed
Tasks
花
penas
▁Bd
▁generated
вод
▁ér
▁Challenge
ówn
ON
▁stuff
▁Entity
▁audience
е
▁Bour
▁помощ
▁passenger
friend
reich
ė
▁neutral
▁papel
Me
▁Mot
corr
unos
ত
▁}
FALSE
▁Il
▁mater
▁ambigu
▁studi
▁составля
▁strange
▁ranking
▁identification
▁conflict
vol
▁following
▁Catalog
ích
EL
BI
nor
▁L
ato
▁flight
nut
Mount
▁oro
yaml
▁CP
нциклопеди
▁Nick
rest
▁Nied
warning
▁estruct
ദ
▁Erst
▁Ligações
ि
▁neighborhood
▁loaded
atholic
phony
Vis
variable
▁Свя
▁{%
intrag
▁Ме
ilation
king
▁list
inci
▁approxim
cente
▁regards
▁magistr
callback
▁every
▁під
▁ihm
owed
▁IL
ése
效
▁LEFT
▁Stati
▁national
▁batter
compos
ң
ienza
▁when
orney
▁qued
▁Nob
=/
installed
ྱ
ves
Pierre
backend
▁Fern
▁Any
▁credentials
▁nuova
▁namely
ség
icol
▁Missouri
ferences
spec
▁los
<0x53>
ir
▁november
▁Ken
▁sc
▁zug
Louis
Connection
<0x4D>
▁vari
Je
▁först
êtes
▁Vector
▁formally
龍
▁Пере
▁hath
private
OU
urop
▁Bureau
▁MC
▁defeat
▁began
▁past
bm
▁erstmals
▁Begriff
ździer
▁urban
ouv
▁Culture
itan
▁округу
▁viewed
ordnung
API
▁még
ध
:}
▁Maybe
▁dalla
▁Jord
▁invert
▁highly
<0x08>
configuration
cross
uals
ходить
quick
ings
▁alle
▁Ста
▁fro
лази
lookup
▁pue
▁об
index
▁responsibility
▁vul
▁hon
super
▁Chapter
▁inqu
▁Wat
▁Lima
▁medal
iment
ita
▁zweite
жде
▁dicembre
▁Champions
Produ
prob
folg
Input
▁Alc
glob
▁sympath
▁agr
▁promises
▁linker
▁dispose
Ḫ
▁сра
▁Third
Mess
▁toute
▁Rang
▁neither
Ï
AV
▁')
formed
remote
▁unicode
seh
ال
▁españ
▁Ciudad
alia
▁fi
onian
стори
▁Außerdem
▁Pierre
▁Regarding
ircraft
▁is
▁associ
abling
olare
▁kont
▁trunc
;;
▁terror
rh
▁hosts
▁%>%
▁Gruppe
▁argue
Н
)(
ibles
▁kra
▁pam
▁d
▁Cultural
▁Japan
▁Eine
▁Emil
жён
서
▁studying
▁aa
Google
▁telling
▁Exp
eil
▁гене
▁figured
▁tips
▁light
▁Beg
▁Vec
amba
▁Mr
▁closed
▁Sche
▁aantal
▁replacement
▁tor
▁эта
▁Bij
cloudflare
▁telep
▁pace
▁Rum
ouw
ç
стор
▁Bron
▁proprio
sheet
дро
єдна
▁WHERE
ních
wol
!)
lied
works
aps
▁door
command
▁Doctor
▁/**
Jose
▁až
▁interests
▁péri
▁проте
▁Russia
▁cardinal
cia
ose
▁Mut
rics
▁ocean
WR
ieb
ubre
▁Andrew
endl
▁Familie
朱
▁August
▁Joan
▁бан
▁basket
amps
མ
Turn
cc
Stat
ient
jb
hy
ittle
▁ease
AB
▁secondo
▁Apple
▁spos
^{-
▁Johan
▁ADD
▁applications
▁orders
Find
▁Kim
▁disappeared
▁TR
ping
▁inse
校
▁agent
初
loc
<0x52>
St
▁Platform
▁kill
▁тран
▁Sem
ым
▁Das
▁пер
J
wirtschaft
ej
▁drives
▁Geoff
▁gravity
▁сот
ӏ
▁ils
▁Leonard
▁pract
▁Http
▁Develop
<0xC4>
arias
▁oblig
▁pseudo
destroy
▁Component
orous
ción
▁Schl
Ca
ž
ള
▁Pre
TW
tta
て
▁hotel
staden
Mode
tery
▁relationships
malloc
take
icul
ེ
more
▁ON
{$\
▁paths
▁ahead
▁garden
▁Anleitung
Rob
bid
▁Snow
▁cadre
▓
╚
▁Jorge
loss
▁wrest
kins
▁chrom
▁serait
pp
пи
▁hab
▁не
ape
▁Minister
▁anyway
▁instance
▁extensions
Max
льной
▁Einzelnach
▁transmit
rott
▁startup
김
ischof
ruits
Plan
rások
▁shame
▁Раз
▁transm
▁einem
▁hours
▁áll
Board
∨
▁SU
<0xD8>
сле
ябре
▁Super
rick
▁Bek
▁как
<0xC2>
íz
▁była
EP
prov
▁guns
▁déjà
▁West
▁nit
лась
▁pp
▁Denkmal
cout
folk
wood
▁hace
orie
lab
ющих
▁beh
theta
▁Value
hos
▁banks
▁Bibliografia
▁самы
▁grounds
arin
符
▁Spark
▁SH
contains
wall
▁decision
jus
▁jav
eca
▁niemieck
▁claim
comot
▁trained
▁hold
лаго
▁compos
▁живело
▁vba
édération
요
▁soir
▁Mitchell
ront
othèque
▁Дже
tu
alling
nim
aturen
umble
рая
///
esar
分
cancel
▁considerable
▁von
瀬
▁hav
▁depois
▁conser
))$
ář
▁Fach
▁sacred
ativity
द
ince
print
Json
Mail
▁That
▁Nak
Bal
}_{
▁Düsseld
LayoutInflater
iffe
▁liste
▁ultimately
Webachiv
▁honest
<0x2A>
▁integer
▁пра
▁ty
require
▁hun
▁lip
▁administrative
▁meilleur
▁fairly
▁inference
씨
▁кни
/~
▁nil
▁acceler
ую
▁університе
umes
OM
stat
▁ages
井
uda
▁usually
▁Australia
▁colored
External
squ
라
aget
▁hr
emptyset
▁червня
▁grab
orious
TYPE
▁stability
▁зв
andas
▁Ens
も
▁wheel
▁'$
ціональ
▁maven
Occ
ác
iams
▁zdob
▁→
▁гер
Get
▁Reich
▁rol
▁rugby
▁Palmarès
Assert
▁You
▁need
лен
pip
▁revealed
▁licz
주
ђ
scala
▁farm
ந
▁tempt
▁para
Bbb
▁neural
▁geg
▁Fot
##
▁\({\
We
▁loads
liches
alen
ifference
Name
▁Now
score
irable
!
▁IDs
▁PM
▁Award
urity
▁complete
▁ś
▁Folge
▁Hud
sep
▁learn
▁V
▁Richtung
▁doit
П
▁міс
▁geld
урна
▁spel
▁gez
▁collapse
▁населения
▁Italiana
▁š
le
idos
▁Robin
uet
▁Sciences
▁mistrzost
▁voting
icana
▁Lav
writ
sin
apis
▁muy
▁strength
▁sop
▁világ
akte
ня
rust
ський
stüt
ERR
hart
flash
▁gesch
esterd
▁кре
ala
uki
$.
▁Possible
▁herself
▁places
▁coup
ɵ
▁Britannica
yp
}}$,
▁From
▁diagram
▁precisely
▁symmetric
рт
sg
▁CBS
▁Does
nav
jl
▁urb
▁derive
ítás
▁^{
▁роман
▁fraction
▁Jar
▁few
CODE
iendo
cling
kem
▁wrapper
Timeout
▁français
inale
▁earnest
install
▁pubblicato
▁abril
▁CR
码
▁proposed
▁well
ющи
▁Ul
layers
example
Hz
▁commission
▁mise
Option
▁дво
▁Exception
▁Among
{'
▁grows
anh
▁lance
┈
ROUP
образ
▁fork
<
мини
▁Ал
emann
▁rs
▁град
origine
▁países
ψ
|
▁dai
alette
▁delete
av
expected
オ
▁Москов
getting
▁Most
▁année
▁Christmas
њи
▁Parse
▁améric
▁sculpt
▁Raymond
▁aug
▁Default
▁Воло
▁putting
▁singles
사
ြ
ս
▁Spr
▁Сов
▁il
▁metros
Generator
road
▁motiv
>;
▁Ni
▁остров
Plugin
▁Begriffe
▁gauche
▁never
▁analog
║
Transport
▁inherited
▁hé
达
▁ptr
unning
Launch
ui
▁andere
▁nin
lane
Register
pace
▁España
łoż
Ἰ
inity
▁Cle
▁abort
eu
ϕ
toString
▁relig
SELECT
<=
CN
lands
▁dall
じ
▁Hamb
","
と
▁Seg
рей
▁{\
ens
▁ft
ło
▁nobody
Package
▁preview
完
Member
Η
ța
▁abb
▁galaxies
▁Heritage
EN
bbi
▁Would
▁runt
du
ogram
▁ano
$)
▁curve
户
▁Naz
▁proyect
lando
▁Va
▁dealing
тон
сини
Memory
So
▁affili
▁divide
▁Douglas
σ
▁wished
▁thro
▁distrib
▁Leb
▁regres
„
▁gy
END
▁rien
Check
tar
▁dor
cards
▁Tro
anel
rig
▁chiam
L
▁чолові
¦
nonumber
▁AF
▁fit
▁return
ница
ждения
ponent
▁call
intro
▁suffering
▁Serie
istes
тельной
appy
▁github
substring
▁Hass
▁circular
enie
▁обла
타
utz
sort
▁grant
▁місце
▁job
▁Gründ
▁Salvador
c
▁Medi
▁session
Validation
▁than
▁Typ
amerikanischer
▁tool
жена
orno
▁golf
▁remarkable
▁aufgrund
放
XXX
NN
河
EV
▁innoc
uen
Bar
"],
<0x51>
▁Compet
ás
▁System
▁early
general
▁mang
Syn
▁dark
sqrt
g
▁vel
Columns
▁perform
▁Carlo
brie
▁Village
▁ambos
▁lä
九
≫
▁Login
复
▁Frederick
▁Future
CA
Batch
▁lay
pres
▁её
pk
▁labour
material
▁lifted
inta
Dim
ommen
▁Lux
▁live
odd
▁pok
▁бра
suit
▁Référence
itory
iet
▁функ
.$$
▁last
Sheet
Worker
马
frame
▁existed
▁ex
iono
▁perfect
▁runat
▁alla
itten
▁Wie
<0x7F>
xt
Layout
eny
▁demsel
▁tested
ició
ATE
▁davon
igma
sein
▁soap
▁including
flush
▁interrupted
execute
▁Sl
sche
=${
▁zd
rupted
erb
▁információ
▁Tage
zés
▁dod
nehmen
ood
forge
▁more
Vertex
▁Schrift
gex
▁Sar
▁begin
▁REST
▁inject
▁errichtet
зом
▁wide
ништво
ässt
ISTS
ach
▁theme
▁prendre
›
▁variations
зей
▁Tell
y
▁VIAF
els
assembly
▁Литература
ɪ
ster
▁succeeded
ewnętrz
▁Les
origin
▁sales
然
▁Polski
inkel
▁seis
▁sharing
▁transfer
▁Gallery
▁Segunda
ifolia
▁length
▁hoped
▁ł
†
▁Hugh
▁som
▁thor
%;
ates
序
énario
proxy
tensor
sBy
▁havia
▁ocas
Views
лн
▁Dean
▁element
▁Janu
ût
▁"(
acter
▁Christians
▁Santos
▁Senate
▁principle
▁rhs
lio
▁manifest
hes
otos
ℓ
changes
ficos
▁conven
▁dependent
▁Valle
avam
▁droite
have
groupby
ographic
пы
▁question
rifice
▁Catal
▁истори
▁rescue
ți
sku
phabet
▁li
itute
Fixed
никами
▁García
ւ
▁últ
▁Kü
б
ắ
=.
rb
ции
▁algunos
ствова
▁составляет
▁проводи
▁*
бы
▁és
▁gelang
ército
<?
▁=\
編
тора
ног
▁declaring
cri
ennen
▁Capital
åk
▁jednak
भ
配
▁ik
▁seized
▁WPF
▁linked
▁attacked
▁Fernando
▁компози
ocus
▁упо
ederbörd
<0xFA>
Sto
▁equality
▁EventArgs
▁ajax
風
▁provision
น
чан
▁Network
ność
си
▁contro
Per
Div
cow
ńcz
ª
cro
äft
sharp
▁Pe
ános
▁Hitler
▁minim
▁кам
▁wondering
▁["
▁parliament
▁GR
▁dont
▁ä
SSION
onda
chten
▁Piet
Private
อ
▁withdraw
mee
▁meta
Interval
▁Ло
Self
wy
▁GO
movie
antal
ibe
₀
engl
AppData
ppi
▁▁▁▁▁▁▁▁▁▁▁▁▁▁▁▁
▁era
Management
▁converted
trim
ações
▁sov
▁diciembre
▁пі
resol
▁statunit
▁июня
स
test
▁Kenn
▁Nel
▁Near
esk
iness
▁sug
projects
▁switch
▁couple
User
ically
▁Ли
called
▁kid
bu
ớ
▁coast
NO
ij
▁afterwards
hor
▁kolej
Resol
▁YouTube
<0x70>
can
▁individual
▁Liste
double
gradle
▁död
abestanden
▁gay
ulf
▁stroke
▁juillet
anzen
▁degree
▁gründ
▁Patri
\]
▁но
▁sac
▁Deutschland
▁olymp
acional
ftware
ließ
baz
▁Пред
▁carte
<0xB5>
Express
zie
umm
teck
▁wieder
▁greater
istration
▁tiene
▁supplies
▁forty
▁presence
inside
▁ready
▁edific
▁Roth
Convert
▁wit
bra
їв
▁пози
ños
,
tered
LM
énd
ulen
ever
edy
}|
std
▁HD
▁crossed
▁kilomet
▁Hij
XY
▁mez
▁зада
▁wię
▁ign
▁circa
Sur
$:
▁Ги
▁Tor
ühle
agrant
▁Public
kb
entre
▁sull
▁Pit
note
・
▁Dance
▁papers
▁nelle
icular
Redirect
ide
▁probable
pb
Tab
▁São
Controls
aught
itaire
▁surv
▁station
ánt
▁docker
▁вико
leep
áš
바
▁situated
util
Msg
below
atie
▁Open
▁rules
▁links
rikt
▁irre
acz
▁Vere
▁Title
▁Населення
▁національ
ynamic
▁Gal
istrz
JSON
фа
▁Pse
Α
▁pent
enschaft
▁older
▁upgrade
▁arc
äng
:\
irche
))]
дия
/).
ila
正
ram
▁stead
▁mayo
Gen
▁Token
▁deutscher
Content
panel
▁office
вается
▁éditions
▁website
▁Ри
pandas
▁Malays
▁available
Dispatcher
▁spend
▁jed
▁conce
▁Wall
▁versus
Ł
▁Dest
ket
▁titre
▁zde
▁completion
▁суще
▁glory
лося
▁Help
▁tub
▁selection
рито
▁sost
жан
▁до
маль
bin
<0x0F>
numerable
▁Bé
ctor
▁dich
ister
▁campaign
utch
▁siècle
▁heter
▁put
utorial
uy
da
ongo
▁builder
▁like
ция
xygen
▁Resol
ß
Jan
istischen
▁Kompon
тил
▁Bob
▁Josef
ieving
▁ис
▁noise
ilen
▁damage
▁Коро
▁Who
▁acc
ropy
teil
пу
▁engineering
uv
fen
item
▁сло
경
wr
чного
Render
oded
▁estre
unicip
▁dev
asons
NEW
▁développ
oru
Que
richtung
▁material
▁Hem
ně
COM
▁divisions
вро
▁bar
▁également
H
ţ
▁Municipal
lr
タ
ById
▁Boy
과
▁Syntax
(.*
▁IM
iffs
▁temperature
▁demi
▁Creek
ynie
▁formulas
▁central
»).
▁desired
цер
▁talk
sock
▁Aber
essa
▁inc
▁Student
▁`|
Br
▁ál
lapsed
"=>
▁warnings
▁Der
▁три
ionale
▁costitu
acion
frika
ја
working
▁Charles
▁con
]])
<0x74>
Join
体
,
▁größ
▁Este
▁completed
ieck
▁Constantin
dating
▁Classification
onneur
циональ
iate
enez
ved
▁Elect
▁Confeder
▁failing
vos
jax
乐
▁concerning
pril
▁tk
ork
▁quoted
▁Bü
▁Thank
▁suff
ikal
тів
▁pode
▁blog
ственный
AtIndexPath
์
▁pounds
▁.
▁ul
▁unless
▁emer
ież
ční
▁Пре
<0x8D>
▁weit
me
Te
aker
xx
buch
arios
▁typically
лет
▁milit
kup
цией
mann
▁interactive
MM
▁facts
ikh
▁под
▁headers
.’
шего
ベ
▁DESC
ror
▁chang
▁налази
▁là
越
ід
▁armed
▁directeur
ографи
UR
eden
▁#(
▁Library
▁recursive
▁Works
▁failed
oser
▁ему
太
INF
llaços
▁detected
▁cualquier
▁pun
cf
▁security
Options
uren
▁Television
▁Gia
modal
▁Josh
lik
▁otros
▁nic
idea
▁taste
istor
ങ
▁Howard
▁réal
ić
ნ
▁clearer
▁Civil
▁Ge
\}$,
▁Inv
▁janvier
▁Para
▁Архи
iju
▁Catalogue
▁craft
eding
▁Derby
▁S
userId
▁Groß
relative
ково
▁record
iform
▁week
▁epo
▁manner
▁tests
oting
▁packages
ke
▁пери
kadem
▁Javascript
cano
swap
ächst
▁Maur
uka
▁Nar
▁Border
ła
picture
kov
UB
▁Lisa
▁Са
▁caval
Font
яви
\%
▁Во
▁Ama
chus
▁orth
▁Style
ография
furt
Pattern
▁DLL
ată
▁choosing
");
▁method
▁González
▁connections
▁Encyclop
English
業
▁gemeins
▁counter
▁Things
▁fn
▁ord
online
ways
▁ESP
▁task
▁distinction
aaaa
▁wohl
engu
▁localhost
▁étr
rac
▁config
obre
▁FOR
▁меда
optional
pragma
▁│
▁ar
▁Dan
▁ses
▁relacion
▁Mi
▁Democratic
ових
REQUEST
▁analysis
▁Aer
zyk
<0x83>
▁stages
field
▁состав
▁coefficient
▁Dir
▁meille
Jean
▁view
with
Parameters
adt
श
ating
żs
▁notable
▁Archivlink
io
ód
ops
▁grad
▁wild
▁Pitt
▁Voci
▁Bio
查
▁Per
▁Equ
▁Instituto
▁profesor
റ
imit
ikt
▁may
äst
Drawing
icy
▁applied
ське
CESS
David
͡
▁deze
ʀ
房
pués
▁sam
▁===
▁Find
▁loan
▁historical
Star
╔
▁stored
▁appearances
▁what
unto
<0x1C>
▁sap
▁générale
SOUR
aille
▁relax
har
▁splendid
▁objects
▁notamment
▁upgrad
▁subgroup
▁desert
scope
ña
Visual
▁Center
▁Franz
▁ehem
googleapis
兴
▁conversation
▁recognized
enig
tensorflow
紀
wn
▁Hall
▁together
▁gol
▁Though
Opt
eni
Push
▁Sic
<0xC7>
▁grav
FI
‘
рав
▁obj
▁politique
▁Island
▁propose
▁Za
<0xBE>
ared
▁JSON
âce
▁Prop
▁illustrated
▁advert
▁ung
▁opport
Land
▁Oscar
▁кли
orem
sv
▁sums
▁consequence
▁mountains
▁Meta
bot
▁tong
orders
▁pulled
▁xcode
family
ischen
▁RA
▁next
login
Pages
▁viss
▁invisible
▁territ
top
▁Asia
sheets
▁Bit
▁species
pport
▁Zur
▁Luft
▁rotate
▁dot
icamente
lemagne
▁Фран
▁activities
▁elli
▁TCP
▁#{
./
ution
trightarrow
>::
alu
▁carrera
▁Marcus
▁various
▁hiding
wär
▁striking
▁Capt
ska
Gre
Out
▁pint
▁Paz
▁Alfonso
▁achieved
Here
▁subm
▁â
LIC
▁{'
▁кі
☉
▁quanto
▁более
▁жовт
▁listening
▁Fed
cas
▁Based
▁läng
▁opportunity
ip
▁Est
LC
▁Sach
schließ
▁ihren
<0xC1>
condition
▁Rey
Tables
ationen
socket
icha
▁icon
DEF
мен
▁frances
あ
operation
ategory
▁dummy
riction
mers
gart
у
nis
<0x26>
▁spec
navigation
▁Akt
cit
▁Jahrh
hin
inary
▁franch
▁politico
camp
ä
▁inverse
COUNT
Param
▁выше
cap
▁outros
фере
▁married
▁port
mus
▁Bef
▁matched
ръ
务
▁Exper
▁dimensional
▁Gegen
▁Gren
▁Украї
▁mountain
iennes
示
▁дол
.~\
天
Sc
Calcul
▁bazie
ктор
▁Herr
어
телей
<0x3F>
▁Section
▁birds
▁registry
rid
JS
▁auto
lais
gres
▁spl
bash
рок
className
▁beiden
óm
▁maja
▁Temp
ί
▁photos
▁fragments
хи
*$
parator
▁учи
▁obtain
▁bol
▁Produ
ções
▁infrastr
цький
zu
▁esa
trans
▁combine
кар
datetime
ufact
........
▁settings
▁canción
▁crisis
▁calcul
FFER
▁instantly
▁subs
inent
log
▁erm
▁other
gravity
Bad
▁meant
▁période
显
▁Starting
▁detail
:(
▁Review
▁designer
Location
▁ella
▁estim
▁trouv
mobile
▁lí
ブ
yci
oin
▁связи
ne
rito
phys
ina
rys
▁Beng
ält
ய
agh
ʲ
eks
пера
站
▁Alice
ie
ями
▁triangle
ografía
pal
▁enables
▁ok
▁prz
phon
▁inches
services
oming
PRI
part
oral
▁SDK
▁Information
none
бур
▁differences
▁Clement
zone
▁Hr
ór
▁Bool
▁wrap
ark
▁connecting
▁revol
▁Pennsylvan
tero
онов
ṛ
▁and
▁resize
RI
▁RAM
්
▁alternatives
▁photograph
{"
Mr
stone
▁Hong
▁Supreme
er
ouch
бре
nr
▁diese
▁Wik
▁Morgan
▁landet
(@
▁punto
ingers
构
▁оста
▁text
▁cred
▁HE
▁siehe
▁usar
▁it
▁worn
ട
대
lau
чий
▁Abr
rain
▁della
▁Wirtschaft
〜
rik
▁pygame
▁forever
active
екси
▁apt
лин
нача
omega
delay
▁soc
izont
uent
perties
▁soit
ADD
ushing
ны
®
oki
▁Nan
ниче
ytics
cond
ju
▁Argument
▁związ
シ
▁sch
▁Mongo
▁Licencia
▁aus
▁Generation
▁worden
▁aggregate
▁instru
ток
▁COM
▁folder
▁:(
▁characters
▁w
▁vé
▁exclaimed
oko
▁Th
d
":
iek
ydro
▁geomet
▁Canal
schnitt
</
▁computers
▁To
findViewById
Inter
andy
▁Clo
icht
▁chron
Bag
window
Indicator
見
Italia
▁objective
esso
▁Bible
▁pris
▁officials
▁tenir
▁начале
commands
▁repo
ophe
element
raph
▁applicable
▁Nouvelle
▁Food
Registry
les
▁július
▁ves
▁ne
্
▁Soci
▁surrounded
▁коло
ille
▁victory
щий
▁clue
Map
atar
阿
▁Naj
▁suf
ограф
▁recommendation
Pane
▁vict
▁::
Deleg
parseInt
ệ
▁plate
▁Lie
▁Studien
ais
▁pet
Assembly
▁copy
ético
page
angles
NSString
abeled
ała
flu
▁Const
▁forward
▁dictionary
▁Pacific
▁группы
▁меся
▁prim
▁Werke
昌
▁tell
▁allen
▁SF
bla
▁structures
евич
▁études
▁Pie
▁much
ORD
linear
▁Kit
▁heat
gment
▁saison
▁episodio
lis
ness

▁wont
▁academic
Age
ове
▁seu
▁дека
▁eight
▁послед
▁Михай
ပ
将
fill
▁establish
efined
sqlite
json
▁avait
▁Camera
лия
▁gehör
comes
▁постро
▁pressing
чке
Mil
context
ultur
▁shorter
▁csak
ured
texte
де
▁acquired
▁Rap
▁polity
UES
ome
Page
▁waste
ale
▁dimensions
▁División
▁Quebec
nach
▁Betty
У
full
ót
町
▁¿
rd
foreach
Visibility
▁divor
▁manière
▁don
container
\}$.
▁жена
apor
слен
berts
▁Сере
box
▁consider
宿
div
▁compañ
▁size
word
▁fac
ielt
▁När
');
▁courage
à
zh
▁generation
cope
▁против
▁confused
isms
acja
iego
▁нау
▁blood
▁id
▁provided
∇
▁manuscript
ek
▁encou
▁Polen
ynast
SE
▁mem
▁Message
▁Files
▁directions
bian
▁prime
▁Compar
Host
▁Gan
Install
ル
▁defeated
writer
ститу
сер
}.
щ
▁police
▁disappoint
▁Lion
▁Ross
▁econ
Ext
▁diversi
▁mar
▁drei
ception
▁rit
latest
anti
▁человек
Shape
▁warn
▁intention
▁sil
▁dynamic
▁integral
▁durch
gebra
▁aan
bey
▁этого
гласно
oem
Studio
dic
iday
▁mathematical
▁release
eq
aris
today
ритор
▁dire
▁Drop
▁tématu
inline
▁Mitte
тик
▁Three
Fil
▁Gro
▁datetime
▁Muham
assador
▁value
ising
▁Przyp
examples
▁Micro
лтати
▁Doug
HH
стом
кин
▁unclear
▁reduction
umerate
ज
意
character
polit
▁arab
▁succession
media
▁struck
тый
jekt
prés
ellij
▁Update
ldots
▁équipes
▁rat
▁CD
▁назна
▁elabor
жду
▁Current
▁себя
▁Ч
ieri
ített
▁Fl
▁fall
TI
▁lim
▁legal
기
▁czerwca
▁plenty
eus
▁Fall
offset
▁MAR
▁weil

▁Mex
頭
▁klas
▁Also
▁lib
經
телем
FS
ству
▁отно
LOCK
kiem
▁stati
das
event
Zero
▁gradle
ović
HashMap
Element
▁famous
▁route
▁haber
戸
Editor
▁terminal
zung
auto
▁recommend
▁aspect
''
▁helped
chan
▁giov
<0x22>
ués
inda
▁regret
ག
▁daher
ân
▁Enter
▁carried
▁prop
▁model
▁Bez
оте
tbl
▁base
▁importante
zia
illon
▁Cad
▁dbo
▁Well
▁detailed
ived
▁Bel
article
fried
ppy
icial
▁Monte
▁separate
▁Madrid
owała
▁risk
▁humor
▁Sep
▁мест
ёт
▁zijn
AX
▁Contempor
oles
xelles
▁Marine
▁entire
▁who
▁uso
▁nörd
bytes
▁PHP
table
▁Nikol
ук
▁onCreate
jící
jön
▁relay
geber
<0x3C>
Л
▁programma
▁prom
scop
:%
▁Norwegian
▁small
ти
▁processed
ancement
▁box
Щ
ition
▁Diego
рес
o
kc
Java
▁hair
▁clarify
acks
▁Need
▁otto
▁policies
▁Time
iami
▁dou
▁fifty
mask
}),
<0xFD>
adu
▁narod
licher
length
})$.
▁cultura
hand
▁female
▁van
,[
path
ashion
▁Cass
▁Quellen
▁ful
itung
▁Texas
ivers
ething
▁Care
▁се
▁geme
▁beide
▁propriet
zenie
▁interior
▁led
▁ge
��
сия
▁Ajax
<0xA4>
▁ду
▁тому
▁dup
ALSE
ület
änge
cx
▁Ont
▁Volume
ит
▁perl
expl
▁explicitly
▁II
eness
kk
銀
▁AS
▁ev
▁suffered
пла
▁cr
▁ris
▁Port
▁Access
Defaults
yter
▁detect
▁hate
▁mesh
och
▁optimal
▁quer
▁ax
prüft
alle
▁lid
union
▁vš
ਰ
▁архи
▁absolute
▁Colomb
lease
species
▁Bach
olan
华
spre
▁Cong
empre
▁fails
▁bylo
▁bare
▁mit
▁serie
rotate
▁sport
▁Commun
▁numer
제
meta
scroll
nth
▁¡
▁supplied
echo
▁exped
çon
̄
▁brother
intent
Html
▁Avec
ново
refresh
lą
iada
▁zab
道
▁assume
ijk
isse
▁·
issance
)\,
▁територ
gry
▁express
Reader
▁Rome
▁far
ницы
lient
▁new
<0xB4>
▁iOS
▁St
xspace
ides
▁quiet
tra
▁mel
пер
▁Liga
American
▁можно
▁err
▁indexed
▁advers
▁stopped
▁Louise
Model
▁Sales
▁great
博
▁formatt
iri
{{\
entlich
▁noted
Li
▁lipca
iqu
▁austral
nę
ональ
▁Dead
Instance
FB
▁If
гли
▁GL
▁Verd
▁kop
icale
ikai
<0x21>
▁"_
节
▁(`
▁diesem
▁struggle
zek
="
.=
мин
ents
▁tex
▁широ
▁pain
伝
<0x5B>
▁teeth
вало
annotation
▁katol
▁defin
▁twenty
SH
idente
▁at
jna
▁dashed
ラ
▁lever
▁fetch
agraph
Events
▁Esta
▁purchased
<>();
▁Simple
igten
▁Organisation
cks
▁prv
soft
idi
assert
▁Unterscheidung
▁Bot
eval
ptr
]"
’
setText
▁Z
alth
▁goal
scal
Quant
ached
▁{},
ôle
//
▁hom
▁▁▁▁▁▁▁▁▁
зна
▁Running
~$\
qt
▁resource
▁проек
▁donner
aju
▁later
US
▁zar
ע
agon
▁hardly
▁grid
won
▁Kloster
▁équip
▁bezeichneter
▁gegründet
lies
▁Profil
▁там
izontal
▁mp
ampf
abc
▁имени
ue
itatea
▁triggered
▁vista
that
▁од
▁BY
führung
▁pierw
дии
entic
simp
пра
legal
▁Double
adow
▁observations
cript
τ
▁feelings
▁nue
]);
▁prev
▁marzo
inking
▁kleinen
öd
scar
<0xF2>
▁Gold
VER
▁title
ucker
南
合
▁houses
▁Word
▁leaf
▁remove
'=>
<0x8C>
iao
▁prav
▁Congo
textrm
}`
èle
▁registration
▁accompanied
▁коро
▁Bereich
esper
gebracht
nit
▁expectation
▁verm
▁conj
▁commerce
ouest
▁Emp
▁texts
Dir
load
ющей
▁High
<0xC0>
▁Bonn
NP
▁Co
addy
▁pid
▁pří
cios
▁Santa
▁musste
▁Plan
▁jud
iety
▁wear
▁touch
Und
▁applying
▁heav
Station
Mon
▁parte
verter
xf
Dict
▁prepared
▁publications
▁Спо
▁regul
▁crime
▁pied
asse
▁Orient
ideo
bf
▁při
華
änder
▁turning
osis
ath
▁county
ometry
rices
▁réalis
▁squad
▁msg
▁ensure
▁Should
burg
aked
▁drive
科
points
▁veröff
drawable
▁proxim
<0x0B>
updated
▁Muse
ire
▁encore
▁async
issue
domin
best
Tr
ßer
Border
Ї
▁status
={
ран
шин
лений
vens
safe
▁Fred
ългар
ніципалі
▁rund
▁należ
▁influenced
▁Fuß
ész
▁vectors
étique
̃
▁musée
▁político
▁Го
ц
Fern
▁является
nu
▁popular
▁перед
▁Bah
▁Ralph
▁lequel
aug
▁einige
▁quelque
▁grudnia
▁erreichte
▁В
▁rounded
▁Jeff
▁decide
▁admin
paces
ourd
▁Parker
STATUS
▁laravel
™
▁minister
▁center
cious
▁segle
oct
▁уни
präsident
▁Mold
▁teachers
▁looping
lear
▁orn
plugin
▁contrary
▁receiving
▁они
arith
rès
▁determin
EMA
▁Тер
▁hearts
Super
视
ви
▁sjö
Tem
Hint
flags
▁Dem
тиче
Sol
con
SSL
▁ABC
ová
̥
▁shape
zet
▁borders
▁forma
ater
гра
fore
коли
asure
:-
printStackTrace
iellement
ettbe
▁Bond
oci
iele
▁Prince
includegraphics
size
Grid
gle
Audio
Setter
ällor
▁Sue
Fields
lán
▁meas
nico
▁championnat
ICATION
Storage
ppen
▁Grey
ión
▁Cro
▁Nell
<0x4A>
▁Kath
ubble
astic
üll
▁lang
▁justify
▁Cla
▁Bitmap
ming
ives
▁majd
catch
▁global
swers
▁SD
▁mid
height
!}
َ
▁на
▁kir
▁particles
vari
thy
▁Gün
<0x1F>
▁Boot
стро
gems
им
▁retre
▁utility
)->
стову
▁Tru
▁meist
理
ческая
yyyy
custom
▁exceptions
▁card
á
▁Avenue
namespace
▁fres
▁noticed
Ty
▁eastern
▁geen
▁Kentucky
▁scan
▁invece
▁Edu
▁Stuttgart
▁stagione
<0x5D>
Download
Condition
▁conjunto
ུ
▁%.
▁trab
▁burn
▁hadn
numpy
uan
▁использу
cat
▁ore
所
mina
anging
="#
scription
▁summer
WORD
▁didn
target
▁plt
▁zaj
awn
idense
дно
elivery
éső
▁USA
▁Jacques
▁angle
▁questo
iation
rama
!!!
▁parallel
▁Bur
elif
▁през
aused
▁Image
ány
zeta
ili
rus
▁Buck
öt
ун
▁mapped
ouc
aff
▁Diese
▁Punk
▁por
settings
▁Hum
ján
že
▁Assuming
isted
р
val
▁environ
▁Guerra
▁index
▁transactions
▁stops
▁Process
▁der
▁princip
▁rewrite
achine
ATCH
▁Invalid
▁artificial
▁talking
▁${
пе
če
iskt
▁dal
register
vod
▁Timer
▁commer
问
geometry
▁thus
▁passion
ips
▁стра
Format
▁parts
▁buf
▁Fragment
aya
▁регі
▁Wit
▁infinite
▁especial
▁relief
▁ogni
atiques
▁Mall
∃
Alpha
▁мате
ridge
▁dép
▁Lear
▁awful
utzt
▁quelle
▁battery
==
uo
▁Beginn
▁key
Origin
if
▁appoint
▁Map
schaften
▁Seb
tax
▁inclus
contre
▁бро
▁six
▁Ва
Hrsg
▁поддер
▁redirect
OIN
▁воен
вая
▁modo
▁DEBUG
ijn
▁шта
φ
ⴰ
▁check
objects
▁округа
▁tower
▁Biographie
istik
▁hidden
ario
▁amplit
▁Deep
eds
Identity
▁dawn
▁conna
dr
▁thrown
▁viele
▁grand
▁maximal
鳥
zott
amin
lost
exports
▁characteristic
wehr
▁Japon
attributes
▁optimization
▁naz
lera
rola
subseteq
uzione
▁italiano
Resolver
▁Population
getMessage
▁myst
San
▁invoked
▁Höhe
outer
▁kurz
cademy
ת
▁Basketball
●
▁European
,...,
▁dol
indent
ły
▁increased
++,
▁refresh
▁fusion
unas
▁refactor
brace
umber
Act
listen
").
mad
сите
icher
▁api
]_
▁кла
▁Cy
Ptr
тика
▁zem
erer
▁quit
▁regex
▁institutions
▁га
elij
▁ning
▁defence
▁oc
▁varchar
зидент
▁Vog
▁Canad
▁сіль
▁Emperor
поли
itations
ocrat
▁skal
SP
▁rank
Pack
▁on
lying
ajo
▁ces
loyment
▁nominated
▁genomsnitt
values
▁Kelly
ignment
▁unlike
numer
<0xB6>
▁same
▁argument
ynomial
Los
▁fl
нец
▁main
Points
▁inwoners
itions
▁instant
+(
▁ear
▁фе
starts
▁employ
▁dry
vik
▁scales
▁bars
▁Two
cid
tool
}},
▁silly
vre
▁longitud
▁степени
▁regardless
<0x89>
add
La
▁Philipp
▁gross
▁million
▁сви
req
il
▁relevant
ute
▁czerw
ude
reek
Screen
igent
gruppe
▁critical
▁traces
▁Perform
Asset
▁javafx
uming
▁infinity
schau
▁Read
цион
▁Fa
▁favor
itect
▁easier
keys
▁ab
▁oracle
▁topological
onia
kes
▁comer
ู
бом
▁survey
entin
ar
▁brain
qual
tres
▁szó
▁Ter
ὰ
▁res
▁will
▁content
▁chant
▁Cot
▁прода
riere
terne
ola
cedes
anst
Qual
▁Bud
▁MB
▁break
▁little
▁episodes
▁always
raz
▁распо
▁Sch
▁tact
▁targets
▁ceremony
▁sv
match
目
Ν
istance
尾
▁An
▁Management
▁escaped
Summary
▁resto
▁porte
▁developing
▁eigen
Ко
▁сы
▁Sid
▁configure
▁przy
Ě
tty
Institut
t
▁sym
TY
▁▁▁▁▁▁▁▁▁▁▁▁▁▁▁
▁Italian
esty
▁trov
ete
▁más
▁ner
▁Spider
▁executive
▁geometry
Drawable
рю
信
configure
lecht
▁varying
▁announ
▁Вар
9
ener
▁point
iast
ступ
[\
▁equivalent
▁ка
etzung
QUE
MON
ському
▁общи
ist
▁evident
had
▁bord
▁operate
skip
apps
statement
▁\\
ship
▁porta
_\
▁fís
▁född
contrib
▁poj
▁Mitglied
▁Stockholm
▁Grace
▁Gir
INTER
рина
<0x96>
▁Lost
▁współ
▁pool
么
abs
sq
▁defining
▁використову
德
▁hacer
東
▁Force
▁wy
след
RESS
ᾶ
▁проис
▁mapping
▁in
рис
sters
по
роме
▁dump
▁arise
gram
▁Gaussian
▁choice
ote
El
iere
Ḩ
▁grund
▁households
ag
▁origin
storage
Information
ice
TF
excel
citep
▁einges
▁brings
▁получи
dataset
▁Prin
apk
▁tweede
火
ise
▁Object
▁Og
▁Mik
▁Reino
▁Lag
▁Represent
▁probl
▁parl
<0x9C>
TER
']);
▁Sab
тература
né
utenant
▁sehr
ко
чо
phi
comments
▁gap
▁month
an
▁publish
icator
▁->
▁gebru
▁Fran
▁visual
тов
oga
toire
так
▁ATP
Loop
А
▁torneo
ocia
alty
▁Performance
▁Leg
issa
▁hide
ypes
[[
redu
ellite
rou
▁extent
pow
▁Alle
во
set
▁bre
iving
▁vég
і
▁Tat
ús
▁diffus
健
▁bene
▁toss
:$
➜
Green
Red
ville
▁szerint
▁with
▁ottobre
▁vb
iennent
▁weapons
▁printed
ový
dropdown
军
▁combinations
▁Soul
▁yours
▁Philosoph
▁where
▁père
emon
者
цы
▁daily
als
▁шко
ゲ
three
w
▁ships
DataSource
К
▁renew
▁comme
parse
▁order
лка
UMN
По
호
helper
▁elementary
▁closely
▁Vent
▁posible
▁CH
▁Security
single
r
eries
▁arte
ervation
▁prisoner
▁personal
▁seconds
▁hög
∧
▁corso
▁enumer
▁outside
vider
▁Sax
real
вест
VID
ownik
▁Rh
Bre
▁simultane
▁doctrine
▁abitanti
1
▁EDIT
▁grew
▁Progress
anstalt
ф
▁limit
Policy
repository
▁Unicode
qui
lich
▁Du
▁char
cement
▁Fac
rolling
先
▁pray
criptor
▁elder
▁Loc
▁ць
▁permanent
ativas
rm
дя
▁горо
▁Right
.,
▁Par
▁semi
▁asympt
▁Parlament
CC
}=
legte
ხ
▁zus
Cost
<0xD7>
itchen
▁cort
▁hoping
▁vill
east
ологи
▁spin
osas
▁lights
otr
Function
վ
▁турни
▁mix
just
uper
▁För
▁exchange
int
sleep
▁hinter
▁proph
▁ent
▁já
▁darkness
ğ
▁Spirit
react
managed
<0x8B>
theless
Stack
▁mer
▁binding
左
▁lattice
illed
▁Doc
▁lavoro
▁stag
▁Sul
▁Genomsnittlig
▁('
џ
▁Allen
Jac
USER
aceae
星
oby
▁czł
▁thous
Constants
Property
JECT
▁Tak
▁existing
ię
astr
▁entity
▁IP
artifactId
▁readily
Men
лм
▁ак
'-
▁sort
▁nueva
▁Period
Bundle
▁дире
▁TABLE
▁XII
▁neu
нин
▁Ble
->
opher
▁einer
ouwen
ji
▁Ju
▁Erz
▁commun
ouve
Description
nio
▁Metropol
▁según
▁Prof
▁anno
▁pi
▁Pract
▁Hinter
сок
▁administ
preventDefault
lv
ask
▁ill
▁Nova
нат
▁commit
IL
▁exp
etc
▁env
ław
elect
▁cal
ierre
▁squ
прав
▁inspir
▁end
════
▁stessa
imiento
▁chairman
▁Video
▁heavily
▁intro
Photo
łow
export
▁Николай
▁encuentra
▁відбу
▁други
"/
rench
▁insect
▁théâtre
▁позво
▁komt
цен
▁otra
▁set
▁ubuntu
▁ги
▁ver
▁imprison
ék
Click
選
▁happened
endent
ANCE
▁dest
▁gone
按
ouwd
usc
Su
▁DECLARE
▁imp
ológ
erv
');
▁scheme
政
▁объек
ющий
abil
Event
)).
Uns
ње
Release
анта
тии
▁transform
▁feet
ierten
,$
▁resources
▁RO
▁Éditions
▁din
tim
ар
▁Те
hnen
态
library
quelle
brázky
▁unter
▁:)
▁Ern
▁mill
▁CURL
гда
▁aby
▁Sil
▁cheval
▁they
▁boxes
▁django
burger
▁tend
▁besch
▁s
andom
beit
isl
▁Origin
▁action
at
▁quantum
▁Wu
osto
▁Federal
Ţ
X
ξ
▁Kir
▁edit
<0x5E>
▁tod
isson
▁nel
▁cousin
▁Currently
▁nuclear
kap
▁ride
▁Days
дель
Start
àt
▁Level
ward
TextBox
ymbol
<0x23>
▁golden
ös
лист
▁!=
▁pal
▁binnen
▁tem
▁Die
áss
row
software
▁integers
▁gathered
▁gives
▁MySQL
▁inputs
▁throne
ulating
Special
ename
▁deployed
▁Glo
▁val
IF
▁shed
font
▁Ier
▁Jahrhundert
<0x98>
▁Info
▁interven
clone
▁weiteren
학
стров
фри
▁familia
ográfica
▁leur
▁Fact
▁marks
ص
lymp
▁резу
Second
▁Systems
▁trib
▁their
ми
Argument
ierte
▁privile
нал
▁schließ
▁grammar
bc
▁gradu
auss
]\
▁Ł
:@"
cke
▁accompan
▁komm
<0xA2>
protected
▁Mai
▁``
▁different
▁dynam
TAC
update
▁facebook
▁anxious
▁sett
atro
🌍
▁Short
▁sare
=$(
▁Källor
▁Duke
book
liche
RT
▁License
ал
▁muse
▁duplicate
▁år
▁involve
▁bott
следова
кер
▁checking
▁audio
<0xFC>
asted
▁components
▁passe
lov
eda
▁strateg
ashi
NB
unc
▁Ja
▁bright
▁Techn
▁ursprüng
▁transition
▁recognition
ędz
nah
stats
gow
▁partitions
▁голо
▁Schön
白
▁Jack
▁push
▁solution
▁nei
ONE
▁attempting
mitt
▁Toy
集
▁pendant
▁gun
ючи
$\
eur
ə
▁nyel
nov
▁cron
▁Exit
▁gibt
⅓
..."
series
desc
▁latter
olen
Seq
With
▁donde
▁Rud
SUB
▁película
SUM
sky
GO
▁deg
▁codes
paste
auc
▁BR
ക
▁Nathan
▁Universität
Á
▁interpolation
▁counts
▁version
▁Stuart
▁hop
▁Republican
éri
irty
▁committee
ongs
▁traditional
▁schema
▁DM
相
awa
▁spir
ement
ns
▁pdf
▁FO
consum
uc
▁cultural
▁Jet
syntax
ND
▁Commander
two
▁fact
▁smaller
▁rok
ház
▁manually
Store
▁tall
▁Senator
Now
▁jaar
▁Friday
̈
▁Syd
Strings
▁francés
amerikan
.-
(['
Fe
HC
▁Film
▁late
ssl
ські
Y
process
▁EF
columns
▁disag
gency
ਾ
<0xB2>
antic
▁merely
reten
ythm
STAT
▁opinion
▁Dob
QL
üd
ual
▁Agent
▁champions
▁jou
itzerland
ова
▁Fue
havior
▁Led
ή
▁lazy
atol
▁political
▁Лі
▁Heaven
olta
▁Normal
▁Baltimore
disk
ales
rait
ёр
idth
▁DNA
othe
pecies
ased
response
layer
▁libraries
fahrt
Variable
nement
Mo
▁Explorer
▁sig
ナ
▁It
ised
▁low
▁power
▁situ
ського
zyma
bei
▁maar
ana
▁Lou
写
appe
keiten
куль
нім
▁Ice
▁Fif
▁mon
事
▁force
football
▁вере
reiche
illes
LR
拉
]],
▁Wal
▁danger
first
agr
details
▁possession
▁Medicine
dostęp
юще
dawn
▁rif
topic
sp
dig
vars
▁Feuer
▁Franklin
atto
ṇ
▁TODO
富
illas
▁був
▁Camil
iac
sa
тися
Ind
▁vis
▁URI
▁scheduled
▁Ges
RAM
▁OCLC
▁geprüft
git
@
AS
esc
▁Vert
ē
▁races
▁Arten
თ
▁clas
▁Activity
▁Judge
▁sector
bd
ographical
▁mail
Lng
estions
石
▁found
standing
▁Widget
OUR
▁interpret
▁Deutsch
printf
▁Kil
ској
▁Dé
izada
mouth
ivan
▁«
Client
▁moyenne
▁fün
imer
'$
▁typo
apsed
▁scalar
achment
▁mieszkań
▁precise
▁Lau
NE
我
Hor
▁industri
ḍ
MIN
▁mist
ште
▁spoke
▁Min
<0x3A>
▁Again
▁give
ieved
xi
▁dance
iente
даго
皇
istra
<0xD1>
▁amateur
ְ
▁Pop
cluster
▁Carter
gså
neq
atum
lub
|$
▁carbon
repeat
▁dens
enis
lä
rie
atge
Thread
swer
▁saf
▁С
}](
zA
や
Version
▁mint
ixa
▁varmaste
▁lig
▁aplic
▁клуб
""
▁laughed
▁OUT
document
▁Ele
▁multimedia
zeichnung
Д
говор
om
boot
▁dimension
enne
▁Container
▁проду
▁Fischer
▁ein
▁Chor
<0x10>
agger
▁которая
trigger
▁participation
министра
▁drop
▁FF
ǒ
harm
Offset
▁Similarly
▁cu
▁скла
▁Anton
▁historiques
cing
rif
Executor
▁Bor
▁affect
▁Wrestling
ech
hör
calcul
▁їх
▁Données
iche
▁calculations
▁changing
berto
▁Initial
Have
▁UPDATE
▁até
border
zioni
▁accus
▁windows
▁going
▁län
▁weitere
▁Browser
▁stand
▁ohne
خ
▁té
mission
ursive
Un
▁přek
oge
uelle
▁crow
▁ranked
ження
甲
▁es
▁Prim
▁estudios
▁estable
▁место
▁picked
▁før
recogn
ulu
▁zak
寺
▁вме
ethod
▁Obviously
▁Press
▁district
Table
值
▁#
▁almost
ità
▁як
iso
dfs
ander
<0xAA>
ких
arbe
▁cas
ird
changed
▁locally
▁absor
▁temps
▁greatest
know
▁brow
framework
▁фор
indexOf
▁M
ué
alert
▁Nep
zález
▁rolling
▁primitive
ozzá
源
Q
▁représ
▁anv
xpath
▁lun
rike
़
ição
▁марта
پ
AI
▁Zob
thm
Contents
▁Jakob
▁word
▁Prote
datas
▁writers
▁maggio
ボ
▁Y
$};
』
▁Administration
▁pipe
▁nu
lichkeit
oline
omen
へ
Output
agit
rome
▁мене
ifts
▁ő
▁Männer
zial
▁х
▁dez
▁són
BOOL
▁anni
дина
▁selbst
▁changed
▁centered
ی
▁hatten
aca
▁suppose
▁quotes
jak
pla
▁wrote
te
▁Lawrence
▁giving
▁пара
▁Lock
inned
▁ont
though
sty
▁Hell
▁films
▁miembros
そ
chrom
导
ufe
▁au
';
dal
iency
ців
▁може
mongodb
ще
▁step
Handle
tor
мель
▁carefully
vu
strip
▁jack
NUM
Progress
▁Johannes
Fri
▁opin
сылки
isy
▁repeat
▁Pur
▁акаде
▁fear
▁Zusammen
baut
▁mucho
▁extremely
ough
loaded
Basic
▁contr
▁asp
▁hopefully
}[
fetch
▁%}
oku
▁Wolf
▁sake
indows
▁было
iste
▁registered
▁Zür
virtual
iglia
feature
────
<0x28>
坂
not
Win
ruguay
▁provincie
▁Santo
odge
He
군
▁lado
▁List
day
▁earlier
▁nah
▁especially
▁reload
вания
\}\
▁Notification
erc
▁für
▁sod
▁ital
uru
▁duc
TH
▁per
▁sequ
onc
▁świat
▁invånare
▁volumes
::
ĩ
▁taken
▁scala
payload
▁style
▁outputs
▁problem
足
mode
рез
HER
ὴ
▁charact
Kind
▁Cic
erm
блі
ogli
▁Gram
lesh
▁ана
)^
▁builds
ческого
ós
▁sob
▁polit
￼
New
▁administration
)\
heel
äischen
exist
ね
▁brought
▁rip
xes
LOW
▁надморској
anning
▁Hamburg
▁expos
▁JavaScript
feld
дент
▁Radio
▁vä
▁Billboard
shell
ou
▁insert
▁innerhalb
▁shock
rà
дан
ategories
IGHT
inc
▁Norweg
ument
EY
тура
▁prowad
溪
<0xFE>
Id
eti
▁quite
Buffer
▁fallen
ň
▁battle
над
特
true
▁secolo
▁Green
▁Ric
▁==
Selector
upt
▁sketch
）
▁cad
▁cand
黒
▁conse
別
▁sons
ября
▁statistics
post
▁Nue
▁Hugo
津
has
▁accordingly
поло
▁edited
aven
三
▁Pro
aña
▁}).
▁latin
▁branch
▁подацима
▁Greek
<0x80>
asy
eso
▁†
ʔ
ymi
Sal
lah
▁zewnętrzne
DATE
▁adding
▁argued
▁loi
少
▁poder
▁quad
marine
电
Card
▁Ar
▁duration
gress
▁notification
ains
чна
Decimal
rides
▁Gen
rails
iour
смо
▁invited
▁За
èg
▁makes
▁Squad
▁'-
partment
▁Ana
▁Investig
▁Esc
▁"[
usto
▁My
ín
▁eventually
гер
↓
▁último
count
▁ipsum
▁padre
▁president
omed
dt
▁Priv
elia
abled
brand
▁вра
parallel
{.
▁oko
ozzáférés
ers
▁(!
兵
`),
▁vec
MDb
uate
▁органі
▁End
ifier
Pod
▁ident
▁heart
▁modules
▁zák
▁Device
ictwo
autom
交
Sort
ixel
▁gate
amm
encing
▁Rhein
▁Recht
▁Unter
citet
rypted
▁magn
▁rever
▁aur
dag
слі
лле
▁ctx
▁ability
ABC
▁%)
anger
▁favour
ró
▁upload
▁Prix
▁Canada
Tools
▁uz
┬
anka
▁crashes
▁EX
ATION
вы
▁nap
▁critic
progress
ulty
iy
▁creature
ruck
▁ale
▁DC
äsident
▁strike
▁immense
лова
appa
story
íp
urrency
▁Rou
▁computation
jective
代
gg
Message
▁Ellen
▁footballer
▁restaur
▁Sank
▁подо
team
▁maintenance
▁GT
шим
ichi
▁alco
▁mom
Background
▁www
рення
óg
▁Code
unte
▁disk
▁assumption
Using
wort
▁specified
ovy
▁Abstract
▁penalty
Only
nahm
eras
▁Twitter
avascript
irls
дії
▁Ши
OPT
▁bullet
orry
▁doll
▁Ker
▁priest
Υ
рии
▁Mor
▁schools
œur
Chart
▁Filter
liers
▁tenia
graphics
名
expr
Ш
racy
伊
php
▁zurück
雄
▁анг
▁figlio
нг
▁correct
Sh
▁requested
mathscr
WM
Insert
icons
▁Dra
▁Hä
▁Urban
▁""
▁divers
▁trava
avel
нитель
▁challenge
▁tournament
▁Marx
én
▁Billy
▁período
▁combin
▁rendering
emy
▁occasionally
▁cpu
ske
▁Chan
ények
┼
▁clicked
прави
É
\)
mvc
▁macro
▁Order
CREATE
▁мар
attan
itos
▁дела
fur
▁Rep
▁ese
▁mostly
setting
▁ekonom
ск
ilian
zik
method
uniform
▁(*
▁Санкт
▁europé
▁Méd
ное
▁exemple
▁tre
▁wrong
athol
gesamt
lb
cipl
▁negli
▁eing
▁concentr
▁Tennis
▁twelve
▁lav
▁depending
sequence
▁sal
icile
▁Edwards
avy
▁tut
click
Btn
▁dzie
▁awesome
▁or
▁white
▁star
▁Econom
▁Kor
▁trac
timestamp
nero
▁своих
場
ence
conom
▁Military
അ
Gamma
▁explicit
Equ
▁measures
nested
治
Raw
routes
хів
бя
га
▁activity
cong
Ze
▁оп
▁seg
ure
CE
cellation
്
▁pro
▁ka
▁pouv
▁Richard
▁regia
▁dur
▁Conf
▁luglio
www
ých
▁primi
▁prolong
▁beginning
jq
▁Se
▁Staff
ost
▁Hö
▁VM
Image
PU
▁tank
ġ
▁projet
connect
▁Veg
еде
▁metal
▁enc
amiento
Space
genommen
---------+
▁Dim
▁Brazil
ható
ент
CI
leased
▁parmi
▁wereld
Theorem
▁bands
▁painted
osen
▁headquarters
일
URE
ammen
▁cors
▁generating
▁Age
▁acknowled
ample
▁cd
eria
▁Vors
ónica
機
▁ministre
court
▁Inc
▁'';
▁pity
▁selected
aters
đ
Play
agan
andr
▁prayer
▁permit
▁Rach
oggle
-(
▁Cred
▁Class
▁bot
parameters
▁vas
▁Щ
ę
▁Project
▁dif
irection
▁closer
▁pt
▁quarter
inge
Comput
▁numeric
▁tu
▁Secretary
▁aix
▁Four
▁tijd
▁uniformly
▁sigu
▁nor
▁теле
▁Tre
▁him
<0x76>
boy
▁ES
▁Okay
▁Sozial
▁former
▁impl
▁Рас
▁runs
▁aber
▁spect
ните
Matrix
imar
▁faced
jo
▁карь
okes
▁sino
▁chars
▁allowed
cr
itmap
▁Action
Ori
▁toen
Expr
▁seats
quant
ісля
▁пись
▁reason
▁veloc
▁fright
weis
unless
еди
▁Fig
](
Checked
▁Training
▁ve
щен
мене
club
ะ
▁Tel
▁connected
▁helps
▁fellow
▁UEFA
leur
▁Brigade
йт
▁Sign
elihood
uing
egung
II
▁Linux
atherine
werke
▁Edition
▁Wahl
uting
ã
▁nie
ï
se
▁notifications
<0x1B>
▁formed
▁univers
▁limits
cred
Empty
orf
▁African
▁bay
bernate
lung
▁pont
REE
문
▁impr
adal
prefix
▁internationale
▁Girls
estre
▁retro
▁grey
(
мого
▁functional
Έ
Lond
▁trom
iler
ljen
ables
▁membership
fl
▁monitoring
▁Mexico
▁bush
▁Mod
▁parameters
▁efficient
▁form
cal
large
lose
▁inv
how
▁Bast
▁террито
quipe
▁extra
▁overrid
▁Committee
ogne
▁NaN
▁terre
▁опера
augh
▁professor
Во
tests
iber
▁desire
rare
▁app
▁attended
▁En
Engine
ad
gré
rayed
▁Jan
▁Unidos
▁web
}_{\
и
▁sous
sk
同
ris
▁incorpor
YES
HEAD
ohn
▁Tul
liter
▁relatively
▁whole
avier
▁modify
ithub
();
▁gi
̪
▁borrow
▁original
edly
кро
et
▁txt
▁loose
Exit
ève
Sequ
attle
▁фрон
CollectionView
▁У
▁dirty
<0x57>
тв
around
,"
▁downloaded
▁Ohio
▁containers
▁comment
▁seizoen
pon
▁Africa
▁pesso
▁Hol
▁Ц
вой
segu
▁stark
iak
▁phil
▁заня
▁everyone
nehm
datei
▁pouvoir
▁villages
lopedia
▁контро
header
▁num
bury
▁Below
eau
chmark
▁Not
IO
▁reference
▁geom
ská
ando
▁flash
тай
▁Xml
Func
▁lack
▁Ré
cem
iszt
igg
îne
布
":"
▁popup
ifie
atch
▁ante
ők
isa
zech
▁segundo
▁candidate
ERY
▁Ng
▁statements
туры
Ђ
▁tyl
▁Sein
hren
▁Russ
acji
▁training
eri
▁Ian
ָ
ades
▁server
▁eux
);
«
<0x7A>
▁Grand
▁два
override
▁techn
<0x3D>
▁subscription
▁formation
▁them
Proof
▁indul
)}}
▁Authentication
BER
▁slaves
▁Association
▁Hat
edu
Company

▁capt
▁fuel
▁mest
▁casos
▁cit
]$
▁neglect
▁né
▁friend
phantom
taire
Authorization
blogs
CUR
▁Jerusalem
argin
ências
ври
ets
lp
hp
osos
orch
ctx
ниш
▁Seq
raham
▁espe
¢
armée
UITableView
▁highlight
arian
ufen
▁assez
▁ever
▁Campbell
▁копия
ֶ
▁мя
▁chap
▁Has
Holder
▁devant
▁Ú
Not
Verlag
erst
|_{
rage
▁pos
lyn
кви
▁citizens
erno
▁стату
▁есть
▁seems
▁Pennsylvania
println
▁зан
,]
▁Philip
as
▁less
uerte
▁ie
langle
▁стала
▁HTTP
御
▁encontr
hosts
▁Naval
▁klass
▁cer
▁exclusive
Intern
▁trying
üb
stable
Az
▁unus
ланд
▁bonus
дела
望
weet
▁Princi
▁volt
iné
▁nested
fmt
Extension
ziale
▁após
▁escol
кет
_,
▁Rück
Entity
ো
▁[
attice
iforn
ство
▁clim
▁Lig
лан
e
▁Language
▁Mock
ников
▁voice
▁David
▁britannique
üst
▁обра
▁abbre
▁default
▁Zero
WID
▁algorithms
)):
fif
▁Chen
opter
▁told
▁ett
туре
▁liked
▁„
▁momento
▁seinen
ії
▁manip
▁neue
称
KS
кої
▁clouds
য
caption
▁russ
Future
itel
在
▁према
half
▁Books
▁inglês
stud
мости
ul
▁ad
▁ју
▁Eug
▁Arbe
▁Rich
восто
▁boy
▁Cloud
▁longitude
▁mitt
▁Engel
▁Bind
со
bij
▁Campeonato
▁Lond
知
╬
关
лект
▁À
flutter
▁intercept
cover
Ė
iveau
iesa
Updated
▁Menu
▁trouble
û
き
▁расположен
▁Blo
▁migli
▁Roll
▁JS
samples
News
her
▁criteria
month
minister
occup
▁invasion
▁width
▁Key
egründ
▁arrang
▁situations
▁Manager
▁Indones
Peter
▁Einzel
▁except
ims
▁Ut
▁Test
sound
rong
▁r
wise
.*;
▁protein
月
▁E
ret
▁ern
ithmet
ScrollView
▁sen
▁jour
ön
digit
ствовал
F
ng
isie
uter
sys
▁magnet
▁LED
iare
near
▁clean
RELEASE
sect
▁разви
▁ال
▁Zürich
вати
▁republic
▁Electron
Re
▁permet
chrome
▁Claude
▁dil
*}
▁software
proc
istre
▁magnetic
Example
▁І
▁pixels
hu
▁che
нее
aggi
gs
▁profit
▁enero
[-
ecz
Ç
▁Ref
▁además
▁Jenkins
▁description
▁государ
▁Anth
▁len
▁које
▁mut
▁bid
工
▁sys
▁Київ
loat
▁costs
footnote
▁involves
▁schließlich
fte
rez
▁plots
▁Ruby
Tri
embed
▁aircraft
Paint
ducation
▁mysqli
▁compiling
右
Remove
▁kier
Ro
Access
ismo
▁Nations
▁growth
▁SA
}}}\
▁dop
▁convention
ˇ
▁gained
▁denomin
ular
Autres
ockey
▁Bruno
▁чтобы
▁carrière
▁Ven
▁diplom
▁visit
▁fancy
▁Justin
▁Result
▁ен
▁bitmap
ign
OL
▁snapshot
Jack
▁amen
heim
built
нев
▁declarations
ひ
Ξ
▁pom
ком
▁Dy
▁guests
%'
₈
▁viel
rive
▁своего
∀
ało
DT
▁manus
▁Stre
▁си
hang
▁horizon
autres
ível
adv
▁Кур
▁совет
ugin
▁whilst
▁или
▁pip
▁exposed
)}(
sta
pred
っ
▁Albert
▁февра
agna
▁Wil
indre
тисти
▁мет
discussion
nelle
ད
▁fixes
unn
▁signs
Enable
義
▁browsers
week
▁Connect
▁fight
ELD
起
▁stable
schluss
questa
West
س
▁intens
▁[_
▁обу
▁j
▁weiter
▁show
“
▁pół
▁las
▁entstand
▁Arr
▁Eing
▁azon
▁mighty
▁invån
▁varied
localhost
▁journ
▁proget
▁Var
ArrayList
ิ
▁calling
▁gat
▁affection
▁daugh
▁linux
▁wins
ami
▁networks
▁deix
▁UP
▁ideas
ência
`).
itage
Nothing
▁Попис
dis
▁konnte
▁benef
igu
ян
▁anys
ê
▁Ret
'`
▁Künstler
▁ví
rop
▁kilometres
rup
▁takes
Env
▁nuc
binary
▁retir
chart
bug
inar
▁parameter
▁appearing
Preferences
击
Build
Document
▁preserve
▁girls
▁logs
ху
iciones
łów
▁höch
property
ifications
Vertical
안
ensemble
REG
Ġ
▁compr
▁categorie
agement
Forms
Library
rite
хан
▁Tür
▁inner
▁spirits
▁Copy
▁Mail
gi
▁ni
▁tandis
▁trasfer
▁ted
arrison
rice
▁randomly
▁duties
▁Small
are
FP
街
chod
ung
▁venne
▁pleasure
▁issued
▁har
upp
▁deutschen
encias
▁scenario
▁обо
ienn
▁sujet
граф
ebook
Man
▁Ль
▁mano
ru
▁ke
ги
ec
Header
itet
失
utors
unge
U
▁Wiener
>/
Theme
út
▁sou
▁satisfies
▁desc
▁authentication
▁único
▁differenti
analy
▁Bayern
▁album
ulaire
êm
▁decay
▁cloth
▁Phil
▁shut
anim
▁rating
kim
▁litt
fah
WP
▁killed
▁sphere
PD
<0x72>
▁sono
▁пос
▁attra
ǧ
Execute
▁мі
▁edición
산
MD
▁Amb
,”
gestellt
yna
▁according
Italie
▁listade
▁Comun
▁этот
fall
ジ
Μ
лов
мі
▁transl
▁Iz
▁hyper
▁Ин
pler
▁postgresql
▁collect
▁respectively
but
▁fat
▁trial
▁проти
subscribe
ük
▁Text
stag
ort
▁stehen
▁Lars
Ž
ǎ
virt
한
▁Beaut
ned
▁Museo
<0x94>
mean
▁sar
▁zum
▁Julia
▁haut
teger
argo
\{
▁Ford
ná
▁Česk
▁enfor
▁cv
bas
▁t
க
▁Griff
▁Harvard
▁temporary
epen
archive
▁kann
▁terrible
家
pur
Foo
haps
▁Crow
鉄
Kit
LS
▁updated
▁Mill
▁becoming
pois
▁sect
цо
ému
serie
▁somehow
▁tent
▁Anna
▁спе
▁Italia
▁mongodb
 
ʋ
▁proves
▁Geme
▁scaling
▁designs
▁jeu
▁zespo
ustration
block
orton
▁cry
enders
mathchar
Í
▁Kaz
▁dirige
oba
▁treball
▁forg
▁Dal
ática
{#
▁dialog
blatt
▁konnten
▁assigning
▁ciudad
▁campion
▁sudo
▁Fort
▁no
▁abund
▁estaven
▁separated
▁nej
▁Lith
▁scored
▁met
▁yard
▁Watson
米
▁Hop
empor
▁initial
▁inoltre
▁"`
iki
skie
дами
▁surprised
▁screens
auf
adém
ว
ną
▁destac
мії
<0x92>
comm
현
ж
▁Song
Binary
Dep
▁performance
modules
▁serves
▁Common
append
▁AM
mc
▁agli
▁gewählt
куп
▁Al
▁typedef
▁code
k
로
*\
▁cultiv
csol
цю
▁coff
ionales
▁asset
▁Walk
@"
▁terminate
▁Catalunya
▁filename
▁ov
▁membre
▁lik
ously
percent
rost
è
▁blank
▁Boh
varphi
▁royal
▁она
▁speaking
▁compens
юр
▁URLs
▁donné
ished
▁determined
'];
▁displays
▁kein
acher
▁село
porte
utf
▁kör
atu
correct
▁iframe
sprach
▁Kap
▁by
▁principles
▁Jimmy
▁Eric
andid
("\
▁Inst
▁identity
▁Sym
▁diferentes
лад
▁probability
▁False
azioni
▁servlet
asso
▁bru
rer
▁Після
▁frag
ɨ
▁device
▁kg
य
▁ban
sam
ori
rist
▁devient
▁sell
важа
ow
cm
▁ок
ragen
invalid
▁tm
▁Mad
▁posting
▁bother
urname
▁sentiment
▁minimal
▁dopo
▁falls
▁Never
▁În
convert
<0x61>
▁remarks
▁William
▁bytes
az
▁произ
evalu
,%
omorph
▁Turkey
▁expla
ASE
atel
▁Docker
▁Roland
▁IDE
▁ly
▁Jeux
▁premi
▁musical
▁celebr
Contact
▁attributes
▁Pav
▁miesz
neut
geg
▁Valley
▁Report
▁französischen
▁male
▁kallaste
Ü
ran
schaft
▁Imp
Sign
ativos
wei
▁Fr
хов
▁школа
ню
='
zym
▁propor
же
boa
enf
▁stycznia
▁avant
▁settembre
▁prompt
▁auch
Lib
▁edge
▁Wikiped
▁fic
▁justice
▁have
▁fair
▁Museum
▁allow
pository
allas
▁још
▁challeng
еру
atype
ski
▁Album
XV
▁Capit
ropol
▁conquist
A
bers
▁log
▁accur
agram
▁capable
▁kap
Perm
constant
נ
▁song
acre
sono
fox
Optional
wikipedia
▁work
ശ
ivari
▁Actually
▁crypt
▁assertion
ocy
Qu
▁similarly
▁abandon
▁nieder
げ
▁ez
▁atoms
тур
▁MAX
zetek
▁Ap
▁Оте
▁cuenta
▁faint
▁vehicle
ʂ
▁information
oro
▁Personen
utat
▁Archite
▁entr
uropa
sted
部
▁shows
pond
》
▁editing
Return
Sym
▁voce
<0x8A>
<0xE8>
exec
<0x4F>
▁severe
▁Boliv
arca
अ
criv
ailable
了
ries
▁tick
▁def
▁Moon
▁особи
▁trop
Validator
locale
▁sevent
meno
▁autonom
▁Buenos
▁Мос
static
▁série
▁begins
▁pł
▁Room
▁op
▁acknow
▁Stef
▁allo
▁movement
▁hardware
▁одним
verk
iss
holm
▁spark
▁Cris
▁Otto
data
▁achieve
ган
▁seven
▁września
▁mother
CCESS
▁grote
Mac
öff
▁dit
did
))
▁parti
▁Storage
▁protagonista
▁scale
ête
▁chez
Scene
mind
▁▁▁
ter
upload
▁Czech
▁Entertain
▁Pa
ao
▁première
▁dates
reens
▁spons
▁Pass
安
conde
▁ин
▁inside
村
▁unlikely
▁де
▁ones
▁м
DL
▁Aug
,,
()),
5
igo
▁beim
once
notes
hard
▁pelo
】
LEFT
)}{\
▁Af
▁determine
▁Come
Spe
▁criter
▁ikke
▁lot
yst
xaml
▁worse
Why
ε
▁inten
arma
▁disappear
▁mainten
▁Lö
Pers
WIDTH
ifice
▁Mär
族
eless
нен
Channel
▁Beau
wod
<0x5A>
▁образ
ват
delegate
▁literal
赤
▁injection
▁overall
▁основ
▁again
▁Seattle
▁bringing
<0x4C>
Print
GV
″
▁Book
▁RUN
▁Ski
▁Municip
▁evidence
▁md
shop
esse
Block
▁subjects
▁buried
▁KEY
ﬁ
liga
▁coupling
()`
commit
▁vac
‰
issement
лее
Pass
Radio
⊥
null
‑
▁Chine
▁basically
▁Frauen
▁contrib
ools
▁poco
▁hu
▁steps
▁vent
izations
▁Bis
osof
чик
▁halt
▁Better
▁худо
▁Clear
▁Pel
▁features
▁Sarah
▁avail
▁About
чь
ками
▁substitution
▁waiting
▁області
admin
▁habitants
üssen
œuv
arlo
▁nella
▁<=
sign
▁London
▁flask
▁Miss
▁ay
▁по
▁Према
O
▁\[
▁центра
▁intellig
화
ء
schen
▁bekannt
▁OF
▁continue
▁ради
▁Date
▁package
▁Multi
▁przew
▁presenta
Price
▁yields
issenschaft
▁Gon
kommen
▁Jen
FirstName
SD
ണ
id
▁lad
▁généra
▁Display
▁kde
▁янва
class
iddle
HT
raft
▁instructions
▁appeal
achi
omb
装
Score
些
인
эн
Av
▁Offic
▁\;
х
pas
▁cookies
vent
▁prote
acon
▁long
agy
▁amongst
▁nut
▁Gian
▁crowd
▁dispon
xiv
▁św
æ
▁кня
▁Universidad
ling
▁sich
▁neben
licate
▁tö
▁***
Cook
▁colonial
READ
▁observ
▁channels
▁verify
▁Baby
maz
公
▁trav
Invocation
▁Jer
techn
▁blocking
▁remark
▁payment
)--
▁observation
NC
▁modes
▁wob
▁церкви
∉
▁bos
▁Leo
▁een
▁sqlite
▁legs
▁ór
▁wooden
▁sept
▁blow
字
▁chamber
widget
ôme
▁largo
秀
names
Inf
▁testing
ых
fil
NER
geschichte
▁rey
▁steam
svg
ividual
▁Weit
▁programa
Ґ
▁сель
▁----
▁pierws
шлен
<0x09>
▁imported
One
azu
▁superficie
▁mond
▁ell
metadata
₃
ක
supported
een
▁gminie
play
▁Som
▁inn
▁remp
):
oires
▁cuer
<0x6E>
▁EXISTS
    
▁cult
▁mach
▁Mare
▁hers
▁positions
▁zoo
jen
▁clés
▁corr
maybe
Add
▁get
▁elim
zna
▁partie
▁replaced
▁Testament
expression
▁Indiana
▁Welt
▁produz
ASC
erd
reet
wad
Famil
▁Fahr
stop
green
▁occas
▁Yu
icture
atted
▁új
▁thé
添
anes
∩
)/
▁high
▁elektr
],
oria
ült
oux
rę
▁Edge
UC
▁прис
ní
▁exha
atica
▁Harris
▁zal
▁particular
▁sense
selected
▁thats
▁CASE
ící
▁animal
▁selon
▁amp
Sl
‹
>[
▁consume
-}
▁((
▁Giul
ienie
▁editor
uset
wrap
ił
▁se
unsigned
▁WITH
▁impact
▁Stein
Fa
▁virtuel
▁случа
▁отде
▁tém
₄
sem
▁Warszawa
保
️
▁attract
▁PR
▁muerte
▁Mu
scribe
▁quote
▁rende
ち
ḳ
▁жи
theorem
▁terrest
▁huvudstaden
▁верну
spe
UD
Ne
▁marg
ป
ho
h
▁rel
▁Ax
 
▁pause
▁Société
odi
▁architecture
uch
▁purpose
lect
▁ed
▁Gemeinsame
May
▁include
▁Wald
▁standards
▁Earl
▁churches
▁Fire
▁Initialize
▁award
▁compan
▁excell
ellt
▁filtered
▁military
ix
▁Aires
▁Felix
▁Char
▁convey
]+
odor
ez
▁province
ennis
▁retour
▁bl
▁dataframe
✔
▁time
▁real
textarea
dependencies
AA
пис
▁verso
Template
▁proportion
ia
firebase
▁wind
▁>
aco
adémie
ље
hel
▁bishop
ბ
entially
▁ask
よ
▁Cre
irtual
▁Dave
▁adapter
frac
▁эти
▁Pitts
▁conception
dash
Mapp
▁Mark
▁Federation
▁заслу
overn
▁Gel
▁Europ
cler
▁own
▁provin
akov
>,
cons
antin
▁Vik
▁règ
▁Verkehr
ím
ева
name
▁processes
ellett
▁toda
▁Phone
▁Height
assoc
Machine
▁dependency
令
rowser
▁xml
▁powerful
Work
▁около
▁Host
▁tak
collect
▁świata
▁assistance
ceptor
фр
ments
стра
χ
▁accident
▁strings
×
▁права
}'
Protocol
ermeister
▁Float
▁metric
▁hommes
ryty
▁muito
▁też
▁stup
▁Ab
ор
▁Биография
▁archiv
(*
▁Qual
estic
ços
セ
დ
▁Marian
Mus
▁Horn
kte
▁Organ
when
ęż
▁range
▁deuxième
▁испол
▁cores
orth
▁Catholic
isset
▁agreement
▁OpenGL
▁flux
▁whether
▁Pref
}(
▁перио
▁IE
ation
行
由
sol
▁Napoleon
▁часть
)`,
complex
follow
cret
QU
<0x05>
▁Jordan
▁Character
▁tud
▁tag
ět
▁Plus
odon
direction
▁ca
pg
▁aw
▁его
рома
女
bild
nar
lap
▁concerned
dom
▁universitaire
erton
▁Ear
▁Geschichte
▁council
ṭ
▁fait
Ψ
▁world
лл
structure
zą
▁Hed
▁січня
▁Queen
ewrite
Static
▁sugg
▁hurt
▁jet
▁supre
▁arose
enced
▁piłkar
▁Plat
mathcal
▁lieu
izin
▁Popular
▁sans
▁figura
idden
If
▁font
maven
พ
▁сп
▁examine
arden
open
cue
▁Насе
▁anymore
itle
▁durante
▁plaats
AGE
öffentlich
▁obliged
▁[[
▁afin
vir
▁mě
▁stands
▁drug
▁Flow
au
▁Rio
стей
éré
ligen
ittest
▁Northern
▁interpreted
▁based
▁wed
▁fits
bras
▁энциклопеди
▁Orig
FE
▁Late
▁mathemat
essor
▁vars
▁prior
że
ки
бер
fol
▁informations
ania
▁mov
▁electric
▁IV
▁bem
hs
▁class
onders
▁groupe
▁Autom
▁Ple
▁Cov
▁bear
▁Militär
Ready
ína
線
▁chem
▁Dak
達
▁soil
LE
▁yet
▁Christian
▁representing
▁disease
▁ausge
▁rész
▁Ask
▁prove
oa
Conne
▁Sachsen
▁rum
assa
▁shop
ibile
▁roads
Current
▁которы
▁$('#
▁>>
ście
▁active
order
(?
And
asz
atever
გ
ife
▁пол
unde
ugel
▁Genomsnitt
思
▁dass
bahn
њ
пен
Cert
▁Consider
eded
².
mel
▁inhab
ml
li
тар
Employee
▁такой
▁'''
▁writer
ial
▁burning
ivatal
▁Ep
▁Einsatz
BC
▁converter
ré
▁talked
сты
▁осіб
▁silence
▁tegen
eme
▁extract
copy
▁revert
▁stal
blank
▁bev
▁é
▁todos
most
▁contain
fields
ny
Hel
(...)
▁"$
Aus
prod
▁statistical
insen
anta
件
yan
▁($\
▁("
▁économ
▁marine
on
pu
▁Ivan
▁finit
channel
▁tomb
▁kitchen
http
imal
node
̣
ców
▁Hello
)».
factor
▁peque
▁network
▁..
server
智
▁Glen
▁дивизи
Fernseh
▇
▁something
ants
gaben
▁vertex
Vec
▁ksi
blic
▁coefficients
▁inj
▁Province
▁Kost
...]
گ
▁mysq
za
▁pushed
)'
▁д
Text
▁ticket
▁IN
▁René
ții
▁серед
ites
▁Player
▁ancora
▁encrypt
▁near
▁helper
▁Forum
▁];
▁Pedro
▁começ
LO
▁everything
CTYPE
archivi
▁Bes
▁household
▁Québec
ért
oid
▁télévis
Ρ
ango
▁foc
mys
igner
dump
▁retr
▁Gru
imenti
池
▁Werner
对
▁verw
mas
či
orith
▁König
▁Мор
▁vm
♣
▁trois
▁Gol
▁himself
▁Nacional
eclipse
entity
▁colours
▁loop
Austral
▁cube
▁modifications
Typ
andis
▁).
▁Жи
▁expres
('/
▁explain
▁<%
ϊ
▁desde
ass
▁utter
▁rim
▁nou
▁remain
▁iphone
▁clear
▁Liter
▁ó
padding
ordinary
pom
▁four
▁measured
running
ause
▁DI
бин
▁Vil
▁Thus
heet
▁italien
▁Ol
"].
▁Sun
▁water
She
▁specifying
▁Regex
rimin
wohl
nest
zar
▁Lov
▁televis
▁experiences
何
fail
newcommand
ют
▁má
▁Ritter
ক
▁Ernst
▁ 
▁Tourn
▁Keith
yi
▁cet
RA
чної
▁ao
▁Until
ского
▁powie
бран
▁turn
}^{
(",
▁Profile
▁fur
ein
▁til
▁Barcel
▁Ole
isting
夏
Pan
"`
rift
▁rom
▁mole
city
▁domin
<0x16>
▁renov
▁generator
aciones
wind
▁Rub
ether
▁Node
eft
▁demselben
chin
▁высо
_*
etro
łod
collections
▁person
香
▁Tas
ус
usepackage
▁Loren
fasst
cfg
unic
щу
▁світ
^{\
边
macro
▁inserting
Attributes
слов
▁Olímp
inn
▁accuracy
ゆ
▁Park
▁Ci
Big
ха
irst
Se
▁Success
▁ISBN
ub
▁whites
ầ
^{
▁pens
>>
▁авгу
ival
Har
▁sunt
▁Thom
▁для
▁requires
▁bootstrap
ishi
▁espec
▁mentions
▁Standard
▁proces
은
▁effectively
▁woman
▁resident
▁delle
▁ain
ン
▁so
Index
▁belong
▁pag
områ
herit
ن
▁IOException
▁zu
uerto
ListItem
▁році
ifies
amount
▁inspired
▁names
▁father
related
▁Мак
▁Paulo
▁buffer
▁listopada
swing
▁criticism
Camera
Enum
NULL
house
svn
ClickListener
Array
ardon
▁свой
▁Share
▁insgesamt
ály
▁pover
♂
column
▁scène
\'
▁fuer
bine
▁truly
▁empty
Changed
▁compute
▁theoret
▁Для
▁Li
agas
▁Religion
plots
loading
或
▁any
lett
▁chat
бі
icted
ébec
lej
▁María
▁городе
▁пло
roz
▁Jes
▁Fro
▁Prag
▁fame
▁VB
▁neur
▁Database
▁traffic
ITION
▁Neben
▁Durch
orer
▁Header
▁Wein
lication
Cart
▁их
▁advice
виси
▁separator
▁ruolo
▁vice
▁gminy
▁firebase
▁VI
▁Cape
▁releases
loy
chor
う
▁Athletics
ギ
ComboBox
▁edition
▁Hook
empty
▁годы
regon
ований
▁ді
▁así
▁acts
▁того
▁Wright
angle
▁basketball
▁kommun
▁Савез
<0x17>
▁empres
obil
▁disabled
INDEX
reck
ene
érieure
▁wojew
bus
Manager
Provider
▁moving
▁Canadian
aire
ва
away
▁Getting
ross
▁Dream
yk
reducible
▁AD
▁locations
▁scoring
▁hook
gue
rout
▁servi
isses
стоян
▁trabajo
▁css
▁introduced
)^{-
▁bef
órico
seed
go
▁reaching
▁bs
atti
▁bande
限
▁AL
Owner
imir
▁Bra
<0xEC>
▁iss
<0x32>
weig
▁ю
▁effic
▁hy
.")
Comment
ans
▁espa
▁Од
Configuration
alous
▁Example
▁pers
▁matching
dependent
▁influ
▁contest
тори
ys
gypt
zor
▁kun
▁leak
▁Lake
Inner
法
▁Oregon
▁▁▁▁▁▁▁▁▁▁▁▁▁
controller
for
ат
tv
▁На
▁madre
▁».
etr
▁propi
▁neg
▁termine
▁'%
斯
Bytes
▁someone
lj
ґ
burgh
▁який
игра
▁города
arring
зяй
eree
():
medi
▁Carl
ongodb
ças
esters
▁DJ
▁encounter
▁ISO
็
oe
▁window
Like
endar
▁Syl
▁fragment
Tex
▁Tamb
▁XVIII
▁Stephen
ством
▁voll
▁We
▁чем
dzie
міні
ল
illy
zej
▁Kirche
▁ше
▁isomorphism
Cat
olid
▁copies
▁Ez
Blue
π
▁control
项
▁blocks
▁sel
segment
CRE
▁religios
uture
em
▁Response
▁био
ស
▁searches
ו
▁Лю
▁Bruce
▁Bill
▁Sor
口
▁bir
ově
oupe
▁Nin
▁imag
▁looking
Parser
doFilter
▁assault
▁waren
▁instanti
CCE
▁interface
$}
▁gdzie
ря
Enc
DU
owel
▁beat
▁tracks
retto
小
fr
thur
\,
'))
pling
▁поль
▁Brig
▁которые
▁breakfast
▁sier
二
ι
▁Thanks
igli
Success
▁реда
▁Три
omorphic
mi
^{(
radius
▁solem
▁strutt
meter
▁'"
▁\$
abei
▁Abs
▁brothers
▁import
‍
sender
▁historia
▁modern
season
▁history
▁Une
▁Save
▁keep
▁Hun
alleng
▁Interface
▁competed
表
▁['
Pre
▁Ј
iske
▁XV
hely
▁ping
ctors
▁morph
်
missing
legraph
Å
kę
▁Captain
éral
▁catch
▁prec
▁международ
▁astr
ellan
▁[-
Ż
▁посе
ampa
axis
▁Ve
дян
▁haven
头
▁investigate
рами
▁voted
ή
ultado
▁load
Server
▁rug
ieves
esia
▁memb
keley
▁Ten
▁rails
urale
ça
)];
▁How
▁Here
张
venue
anted
羅
县
Db
Media
단
▁violence
oso
▁canton
▁pur
▁Traceback
▁Fu
▁który
quet
▁февраля
▁optimized
▁впер
»
▁earned
▁Jegyzetek
▁Asp
▁Linked
<0x04>
ast
patch
дного
Short
Panel
icious
▁niveau
pipe
　
pointer
▁всех
overflow
зо
trz
▁problems
▁wra
istrzost
unst
▁dra
永
▁febbraio
oop
Log
lle
▁сооб
▁god
▁Conc
ały
encer
木
wert
None
▁my
▁contra
▁kol
▁Ubuntu
▁explaining
▁köz
itated
▁Notre
isto
▁psych
▁административ
▁limited
▁games
▁minute
▁menos
fileName
ję
iore
LA
▁Num
▁mús
Who
rä
версите
нар
▁ти
▁substant
か
▁Plot
br
▁backend
▁acceptable
tritt
▁way
icios
Paul
▁zas
▁anth
://
кла
▁bec
▁насељу
▁Engineering
ECK
бов
ouver
UE
lar
▁Мі
▁zna
▁LA
Router
шти
ью
arial
ificate
▁obras
йской
▁Schiff
▁Geg
▁invas
quantity
▁zip
encies
in
▁других
mania
⊤
times
▁ingles
▁journal
éma
▁East
Meta
▁Dup
▁marc
光
▁entfer
ored
▁feeling
су
▁offic
▁({
▁ры
▁hypothesis
▁автомо
Num
現
ges
▁among
iat
Drawer
[_
▁actors
ە
сте
▁LIKE
йм
▁shoulders
▁сери
чёт
▁social
cy
▁computing
▁Nord
▁Ly
aal
ною
ican
Є
HO
unci
icket
▁converges
▁Executive
▁Laura
▁fans
Activ
arten
▁Ди
ється
▁società
ể
▁enemy
▁sondern
DN
)}$
▁drum
▁Microsoft
ր
▁novel
lea
fit
false
▁Pseud
▁England
iftung
ῥ
შ
当
▁catt
▁singleton
▁Świ
zien
▁bounded
<0xA1>
throw
Student
cursor
▁Palest
▁want
▁lecture
▁Dom
Martin
displaystyle
▁tour
▁repeated
<0x12>
▁brilliant
▁З
▁Mack
▁setting
umn
icon
▁after
cup
▁decided
ACK
MenuItem
▁Belgique
▁Energy
▁mundial
學
▁interested
ders
elta
iante
▁Market
bere
▁militaire
▁finished
▁reduced
iter
▁`$
▁archiválva
▁preserved
商
When
▁install
▁sought
ワ
▁wordt
aces
}-\
▁зали
ій
▁Республи
▁hear
norm
unya
▁afraid
▁anch
ふ
▁predicted
▁Br
Inject
▁fol
ре
▁'\
CLARE
마
▁present
adows
▁Lip
▁fitting
신
▁Кон
asser
▁cabin
ROOT
▁River
立
publish
Js
$?
▁berg
lic
▁invent
ној
migr
▁Could
isation
▁hot
▁thre
▁sail
▁cual
uerdo
idget
▁bij
▁feels
▁Ні
▁Variable
展
ษ
ː
ép
▁площа
▁cuatro
▁medio
▁seasons
бка
arsi
oauth
Direct
ské
Job
▁Bedeut
▁removes
▁го
▁éd
▁risult
▁tran
▁topics
жений
▁issues
wealth
▁done
▁merge
iley
▁energy
iges
<0x29>
Filter
▁antes
sdl
¯
ixen
▁mode
▁falling
erva
ishment
ního
<0x49>
ande
▁BE
▁Memorial
▁lemma
ө
▁Admin
▁ещё
▁Pl
▁allem
Mich
▁Gl
ход
/*
WA
▁ries
Aff
▁lem
jours
▁día
chos
▁Append
ództ
ász
▁destroy
punkt
▁amer
lock
▁Do
▁rely
слав
▁comport
TRUE
úl
▁Mans
▁feu
près
⁷
▁those
▁Ś
====
▁zach
▁link
▁Part
▁campo
▁God
ſ
onymes
▁Scotland
clude
▁hely
▁areas
▁defined
enden
▁Ann
Ա
▁sni
чко
▁purch
▁Durante
ctions
▁petit
ungsseite
мон
/:
getText
unkt
▁GND
sum
anges
?:
ὺ
명
rp
ahren
ECT
Total
jąc
▁livres
▁resulting
▁Go
▁showed
▁ло
▁thin
▁ggplot
▁Arg
coming
ientos
▁confer
legt
▁Hern
▁тех
($(
▁run
n
▁Dragon
aware
▁Thé
aint
eten
▁пе
ifact
▁hus
▁beskre
▁tutto
Show
▁Под
goto
▁Nobel
⁴
▁saw
▁publicada
▁hunting
aza
▁Italy
ě
▁homonymes
Smith
▁Spe
M
Length
▁answering
uries
osp
бра
▁Weiter
▁Ak
ándose
ail
etti
Definition
▁Coppa
▁redu
▁bias
ı
▁Север
▁baron
▁chart
ウ
wan
nog
▁satisfaction
oj
zig
Ű
Operator
▁MM
▁ace
Look
▁título
listener
▁Service
eduled
porter
afé
心
ors
sz
category
Side
▁But
cije
RENT
CO
Time
öm
ook
▁stated
▁quella
▁tap
▁sizes
ator
ätz
▁travel
▁rela
▁Unfortunately
▁august
▁Refer
ержа
▁mé
ningen
▁corpo
мени
▁Prom
▁Palmar
ARNING
ated
▁že
▁Maven
▁recording
コ
▁coun
def
](#
▁cinema
bre
▁Chief
▁episode
▁construction
▁déf
ytu
FilterChain
ída
시
Infl
▁den
▁DateTime
▁то
▁println
▁Tomatoes
성
格
fony
▁ep
▁станови
▁Mess
▁Oktober
▁пода
mt
▁Poz
ג
мер
▁Stream
&#
▁Sieg
unicí
▁cy
kende
▁manager
▁configur
irement
▁exer
required
ера
зь
▁negro
RL
▁дви
▁Бра
ije
Begin
▁fly
▁intr
教
‭
▁analy
▁listview
▁acon
▁Everything
▁Ville
▁Great
eli
▁лю
▁држа
▁jamais
▁Zweiten
▁хозяй
AG
dale
▁lower
ams
▁tools
▁chosen
▁coinc
зер
année
▁Mé
▁Sverige
▁Frei
η
kunft
fect
коло
▁Dienst
amment
istrict
▁Sus
▁mask
▁Broadway
▁бор
若
▁theoretical
fran
▁San
▁plans
▁erst
jší
▁vor
стру
▁insight
▁Ге
tem
create
▁Ber
▁Toronto
izado
▁abol
(...
▁ports
▁adapted
▁Quick
▁bearing
What
▁governo
iones
prep
▁Верхов
Bel
▁Bil
▁Flug
Sdk
UILD
▁Cal
▁housing
ació
▁variables
▁Referencias
▁carriage
root
cep
▁Atl
accept
Ч
Back
cos
▁duplicates
₉
sweise
▁Looks
▁solit
▁na
реди
Acc
▁portrait
▁gare
▁USS
▁beauty
▁pueblo
▁conten
cz
▁providing
▁том
що
汉
nisse
uman
ов
▁rec
ivi
▁thinking
▁ered
cio
ipp
ях
▁Gew
▁Mobile
良
▁sources
▁ред
before
otrop
ými
ache
uncia
ย
Phys
liest
ності
heck
▁nation
▁satellite
sun
Formatter
▁sout
bles
льного
rewrite
}}(
EGIN
▁много
det
ba
▁capac
зі
▁полі
▁села
▁Kirchen
▁muchos
▁Estados
▁"${
▁camb
▁Хар
▁cre
▁kan
▁nazw
спо
ęd
illiant
▁pil
Amer
ør
Sing
▁periodo
blah
▁RE
Ì
▁purely
ники
мина
necess
deploy
▁Illinois
)})
odu
▁foreign
♦
▁deprecated
▁tam
▁театра
▁und
FR
pad
▁took
▁Schule
▁Ukrain
▁proyecto
rias
▁masses
▁Detroit
og
eping
<0xA6>
gest
▁Фо
▁та
["
⊂
cient
▁ASC
Snapshot
門
▁equ
▁alter
кови
++){
也
▁Des
▁Landkreis
品
▁окон
▁_{
▁inheritance
▁Ang
个
单
Ë
ionen
raste
▁dessen
▁Tower
▁decrease
▁й
▁Karl
▁Visual
▁drama
▁won
▁generic
▁экс
лся
▁Laurent
amil
▁miejsce
▁hoch
პ
▁були
ABASE
▁tr
▁below
▁meses
▁ther
xture
▁Deutschen
▁реки
▁Sweden
Database
▁cada
Î
▁É
)$$
▁Arbeits
▁tax
▁månaden
charge
⚭
xsl
▁коли
вед
▁Charlot
▁suit
▁quar
▁axes
▁Msg
<0x59>
▁k
▁novembre
aben
nodes
▁lon
▁nr
µ
▁qui
▁cosm
kreich
▁publié
▁dei
▁nam
Take
▁року
▁száz
▁(
ump
зыва
▁Science
employee
▁conseil
erg
▁permissions
dam
▁По
▁minor
▁enjo
perate
engelsk
▁example
clean
Drop
atif
接
▁added
▁Pad
▁Alex
▁modific
▁SUM
▁obser
ʷ
▁Buffer
Eq
▁firing
ber
Scale
од
theme
▁présente
Sil
省
bed
both
laz
学
reader
mouse
нов
ћа
icole
▁alias
▁serial
ryption
▁Road
Constructor
▁pub
inde
come
bindung
▁'#
▁overcome
instance
▁Events
жі
ço
cont
▁stir
▁rei
▁Aut
"))
▁VAL
▁advance
▁roce
▁frequencies
▁axis
▁chrome
▁Ра
▁mat
▁gas
▁grud
bb
▁dar
Activity
}$,
дав
▁Design
▁libro
▁Libert
▁Mys
还
anner
спорт
▁describing
aved
▁Original
▁Football
äm
活
};
itution
Ant
▁Margaret
ORY
GR
states
▁Reg
▁future
FC
factory
▁GPU
▁wider
▁escape
▁Begriffsklär
▁ster
ส
ots
compiler
▁hill
жения
▁plug
uling
коном
OR
魔
▁begg
들
▁elet
▁discuss
▁Un
▁sea
▁dernière
▁letech
▁descent
▁Iowa
ases
▁воло
▁driv
▁вс
始
rian
▁procedure
Toggle
Types
Us
▁Sydney
▁этом
▁proble
▁accounts
▁Rank
▁respective
▁Vertrag
▁Frau
▁declared
▁lawyer
▁illegal
Writer
ubs
▁Si
▁Klein
▁Maxim
led
ären
▁system
▁"%
▁Mathemat
▁rates
uno
▁foot
▁Насеље
な
Global
ذ
▁genus
▁fate
▁Dar
Њ
af
▁России
ète
esome
ições
BIT
твер
▁CPU
▁department
∞
▁Nap
▁той
𝕜
▁prototype
▁command
greg
iseconds
enson
fatt
На
▁lots
black
völker
▁została
▁Their
▁Уи
歌
▁Tan
▁prost
строй
▁Put
▁Albums
azure
从
dor
aneous
¶
▁Gil
▁GC
▁pop
▁Deput
▁Yam
▁texture
google
ulation
▁Kel
utes
▁tart
▁Stone
shape
▁riv
Let
▁triggers
▁Brad
▁isol
"/>
ribu
chat
├
Code
ление
Binding
ǔ
▁http
▁compon
▁&=
▁traverse
▁neighbor
▁wicht
▁deploy
дён
▁contiene
hn
▁strip
azon
？
()))
тка
▁fresh
wal
▁XIXe
解
▁Championship
▁[];
band
森
▁tiempo
²).
ROM
pop
▁IU
▁Our
▁identifier
▁Mel
▁Ton
▁celle
URI
▁Fel
是
▁fus
ublic
days
▁NFL
пор
Off
▁sufficient
▁HO
利
▁mission
▁Neue
baar
nes
▁г
ції
^
ities
št
control
▁```
▁XXX
デ
spring
дже
▁%>
▁wa
▁дан
▁gemeente
金
კ
▁teatro
се
status
();`
possible
▁einz
<0x4B>
▁Miguel
jà
opens
ban
▁Task
fg
wach
”
ḫ
▁Circ
▁{}
▁acht
▁бли
oce
▁SSL
ес
iting
▁prest
▁agree
▁avoid
oy
▁polar
etch
▁Pi
▁бы
лта
▁Rad
▁Maryland
▁Unternehmen
▁projection
▁escri
AtIndex
aming
▁фло
▁territorio
▁contents
ió
▁Є
▁segunda
▁Size
<0x73>
▁reached
▁unusual
impl
pshire
ت
▁pie
▁Up
tere
▁animate
▁divent
:"
ako
강
▁ios
resh
▁frameworks
¨
Collection
icks
▁Foundation
▁classical
▁presidente
▁''
wart
riften
▁render
▁extended
ard
▁nyelven
▁drawing
▁digits
▁phase
▁мира
Anal
őd
▁Further
amos
▁exceed
arning
ква
це
▁seq
▁failure
_;
gb
tr
▁ave
▁arr
▁Zwischen
гии
▁teams
▁Turner
▁Londres
▁dedic
▁Jahrhunderts
▁correctly
books
▁goes
▁Play
ät
ingsområ
▁roman
quent
▁(.
▁гла
▁дома
▁decom
;;;;
▁heads
▁raison
ingo
▁fund
elter
•
▁posted
cription
▁районе
▁kö
据
<0xBF>
▁vérit
▁icons
▁seine
ų
opsis
▁Isra
▁aurait
тт
ť
♥
▁caught
above
)}
▁thou
期
branch
dat
▁paramet
empt
▁Venezuela
▁consp
azine
▁pov
Renderer
▁contains
aison
▁Log
▁living
мерикан
▁ње
飛
▁Regierung
ס
▁ST
▁eat
▁Кара
▁области
▁Irish
▁passengers
arr
▁domains
▁confusion
▁publication
вен
▁elsewhere
▁Gun
▁vid
(|
rib
цію
Relative
▁Ox
unix
▁achiev
▁США
▁Bre
通
▁бере
▁doesnt
─
▁formatted
ugg
мати
ayout
▁ersch
interno
тия
▁Gra
▁comercial
▁nobles
▁GP
▁ég
rec
▁indic
бле
▁contradiction
Cent
▁Garc
▁radiation
____
пада
▁obey
▁Glas
Mask
▁Writ
orp
▁także
,-
pot
▁altres
him
Val
▁birth
iane
htt
quire
ъл
<0xD4>
▁quelques
▁pelos
................
Controller
▁ski
▁proto
Ка
Frame
urer
▁opere
den
▁Southern
▁poison
▁Cur
lapse
▁References
▁optional
Custom
▁Bilder
▁cham
▁commented
ximo
likely
iben
▁source
せ
build
'),
▁covering
▁ment
▁Govern
ром
▁Active
krie
▁safe
▁Л
▁basic
▁descri
nungen
':'
ђе
▁Ukraine
nja
▁jego
乡
▁format
City
те
▁Jane
▁Audiod
▁declar
At
esto
▁▁▁▁▁▁▁▁▁▁▁
processing
▁estos
~~~~~~~~
Queue
▁Cold
▁relev
▁crist
embre
!--
▁pass
▁Krak
▁slower
▁sides
▁encode
▁apparten
▁eff
▁handling
▁France
▁discovery
tat
▁Ast
щих
<0x27>
ctrine
cl
left
▁tin
▁caused
шь
май
он
Bean
ющим
▁tout
▁miles
▁refuse
Φ
▁jedoch
▁account
судар
▁paint
***
ttp
decode
▁positive
▁Ferd
▁wenig
▁agosto
aret
▁vale
▁briefly
Transaction
▁eran
cji
.”
ін
▁míst
▁January
▁rear
ціаль
ilib
▁education
FL
▁fois
▁Історія
▁minus
hover
vim
▁надмор
Center
▁carrying
кон
ile
▁death
}^{-
▁java
▁Santiago
▁Jam
len
ці
�
IMA
Rows
▁Victor
thern
▁receives
▁needs
▁hebben
wh
▁Gul
▁VALUES
éter
esseur
▁chanson
▁Steve
It
esség
▁Geschäft
$-
▁Many
▁database
▁graphics
<s>
▁Political
水
▁pesar
▁stream
进
seq
annte
▁unity
sci
MC
▁ps
iwers
ton
zös
▁È
iti
charts
▁Ministry
▁Mediabestanden
zak
<0xF9>
▁cons
▁Disney
έ
▁Arbeit
▁Hans
▁road
ują
▁astronom
imientos
▁ingen
▁largest
▁Nag
för
▁Cart
▁septiembre
▁Luther
uint
circle
▁люди
spieler
▁bo
med
ower
▁gleich
хва
ру
ador
usr
結
▁generates
нос
▁propri
Ñ
▁le
▁implement
ih
▁video
▁Norm
▁sure
erdings
ῆ
▁exactly
▁Не
▁Minor
▁deleg
▁Foo
ixed
▁Estad
▁Harm
▁stru
plit
fang
▁blan
csv
▁Mag
▁proced
▁Brasil
geführt
kań
aving
▁продол
."
▁olimp
▁squadra
▁ру
▁времени
como
▁procedures
de
')->
numbers
▁double
▁presented
▁écrit
▁distances
▁giugno
▁Eliz
But
pts
▁він
ὁ
ultimo
‎
▁poor
ט
▁Mun
▁puntos
▁compiler
arda
pl
ins
▁because
#{
操
▁Research
▁behavior
▁conform
cala
тирова
unction
endes
Tu
▁Kurz
ésie
<0x58>
wo
▁Iss
zó
ാ
ör
atorial
door
ˌ
▁Elle
ăt
▁folk
▁champion
Bottom
C
▁parsed
ний
dit
▁some
nak
Bounds
ajn
▁свет
ܝ
▁bei
validation
▁pattern
▁js
▁dust
atern
▁chiesa
rt
romagnet
▁existe
seen
▁desen
日
千
М
lay
Arguments
▁milk
▁steht
вели
my
pe
▁Gy
idal
appendChild
scene
UID
▁indexing
▁nod
America
樹
▁Early
▁Sm
▁située
▁intelligence
vés
ühl
vin
▁spent
s
▁decomposition
▁viv
MainActivity
▁th
python
▁spac
ación
VF
urst
引
PK
kaf
arel
itories
▁Cons
<0xA8>
uly
Zone
ía
cido
▁január
▁Filip
coded
▁rode
▁Efter
gun
cop
▁mundo
uring
▁lyr
▁lub
Fetch
icip
▁statement
sigma
▁symbols
▁designated
▁passer
▁Kh
▁Jess
]{\
нии
<0xDC>
▁pró
▁CI
ші
Selection
').
мах
▁nombreuses
Ж
hem
ří
bage
PropertyChanged
▁Coast
象
▁McC
rij
▁Stadium
▁circles
IMARY
网
▁Greg
▁Parliament
Linux
rugu
▁spher
uzz
▁Laur
xy
Hold
▁Bear
▁itself
quad
▁exhibition
▁entries
▁ampl
<0xD2>
▁Desde
Identifier
ateg
▁guarante
AT
})^
▁sb
ског
Zyg
pected
▁amet
.
典
▁alpha
▁resultado
μ
+=
université
▁Airlines
Sito
?,
жен
▁mayoría
fc
▁AA
voke
▁wegen
▁fee
▁incomplete
▁Cambridge
=".
ackage
▁Бри
ძ
പ
ober
▁разрабо
express
▁Graham
offs
▁Only
iae
▁shortly
▁serialize
▁curves
▁calc
▁burst
▁visitors
▁dr
Contains
▁=
▁Self
zi
aches
▁evaluate
▁població
ammer
érez
тей
équ
say
▁possibilities
▁Сан
ygon
ție
▁Fritz
▁líder
▁Institute
軍
▁tags
▁че
▁Een
morrow
ior
▁fot
▁Mar
▁shown
Application
▁Bat
ListView
cookie
▁McK
▁Squadron
▁leng
ных
Float
▁ash
ugins
atural
owe
▁subject
▁fewer
無
▁comput
∂
구
▁lak
▁Wer
▁IB
▁even
求
ency
ups
ف
▁equip
▁dessin
[^
▁NC
▁Baden
▁medical
compose
▁Castro
▁nord
cken
▁pueden
!!
▁brave
▁Krie
▁tek
Tube
▁quick
iből
▁csal
ó
isecond
▁Sebastian
▁jan
▁emulator
▁limitations
ed
▁vý
▁Women
nb
▁Wood
дат
▁mul
▁эконо
▁exerc
ść
▁printer
▁avoir
Two
▁corner
▁book
Ḥ
▁Hope
trace
▁ellos
▁Cuando
fø
▁emit
▁see
ску
▁flat
NAME
▁tun
▁Lanc
hpp
▁Ireland
▁znaj
ія
▁typescript
▁као
PC
groupId
▁Bath
complete
▁Murray
▁édition
idae
blob
▁созда
E
▁anything
sync
Rightarrow
模
rach
▁tries
▁Архив
removeClass
ząd
▁appreciated
ostał
▁Balt
▁Poland
▁Ort
forms
▁Jahr
ität
▁ALL
animate
▁After
pend
▁seul
>`
bráz
▁throwing
James
atique
ének
gn
▁юго
▁charts
▁boost
VERSION
▁dam
▁Way
ical
iga
▁Historical
љу
▁време
gre
▁garbage
∆
deb
▁naturally
▁NSLog
website
rz
`](
▁Als
creens
▁retained
▁Story
setAttribute
iff
read
▁Florida
▁Cet
▁prep
▁particolare
res
├──
▁match
TE
▁eb
mil
▁Atlas
▁STR
z
Internal
သ
nem
anya
чина
ITable
断
▁activ
redirect
▁Monday
gef
▁Same
▁best
Ս
▁Да
version
▁Isn
дви
▁Cir
▁tal
Michael
▁исто
include
▁Bom
hip
▁questa
▁Sam
▁annual
▁cuales
▁officer
▁hist
ajes
cole
▁Transport
▁wordpress
▁вла
▁Maine
百
adó
érature
▁mű
']))
▁composer
▁associations
`.`
▁Union
vertical
▁figures
▁finite
▁master
▁togg
▁Advent
定
▁npm
▁film
pi
▁reducing
nih
▁Stud
Sample
▁Tod
того
pes
▁mas
▁compag
▁мы
ב
▁bron
iš
▁schwer
▁del
ident
作
ש
▁det
▁curv
ctr
▁ору
▁Child
▁člán
▁También
▁closure
üng
▁Mari
cart
▁Reb
▁interesting
ák
▁wings
▁Jr
▁indicating
▁Después
▁grupos
ones
chni
сор
arn
▁Tab
▁unto
.}
OK
▁established
ership
gression
▁keyword
▁Software
▁Eb
ständ
AndroidRuntime
SEE
长
тся
▁mois
camera
Target
港
країн
üsseld
▁sched
spark
he
ppe
▁збір
▁suiv
нове
oud
▁Konst
▁brig
▁amely
­
次
no
計
▁hel
▁program
Pe
▁муниципа
▁Factory
▁годи
ensoort
iech
载
▁Cz
▁collabor
▁ав
▁Amts
▁Miller
▁Sü
▁yards
▁Following
nia
▁затем
▁bound
usqu
▁floating
▁embar
olk
zeichnis
▁assured
ез
entials
▁xx
][
▁says
▁attached
▁деятель
▁Partido
ma
▁Sky
прия
丸
▁numerous
lection
><
Cl
ò
▁firm
▁skills
іб
▁concrete
غ
▁Fight
▁Im
éon
▁extending
ActivityThread
▁kept
ierz
ick
avig
disabled
.]
必
▁Living
ὸ
tri
oit
▁übernahm
rap
▁Earth
onyme
▁shortcut
}}^{
limited
▁alg
var
▁mod
▁hills
▁Provinz
▁Kate
▁Á
чный
▁ней
υ
▁СП
ἡ
▁respons
▁ар
▁taking
▁eigenvalues
▁slo
qué
AUT
ホ
держа
▁recall
▁Introduction
▁sav
so
▁update
nn
ұ
▁otras
=\
▁option
going
▁Square
▁civile
onsieur
▁création
▁fon
mk
enter
▁certainly
▁zeros
《
▁'',
opts
orld
▁you
▁THEN
лез
VAL
хід
▁konn
emed
▁cold
▁Sure
面
镇
竹
ples
▁not
▁Exec
udni
ment
iversity
▁Lane
lier
▁flexible
▁История
рож
span
▁Martí
▁Nu
kr
▁debido
welt
\
Sidenote
▁Sri
▁internal
ће
▁Mic
联
<0x20>
▁charset
ead
ory
▁attempted
keyword
▁губер
Since
icity
ガ
})\
security
▁із
▁első
ershell
দ
▁finish
циаль
▁troisième
▁samt
ั
шения
▁green
▁Riemann
bmatrix
ŏ
▁terrain
▁Relig
omic
▁vic
speed
Arch
▁points
▁cx
∣
▁Syst
▁caratter
yn
▁R
▁string
▁marked
▁forth
ário
▁tradition
▁gig
tz
STATE
▁Step
▁versch
▁simultaneously
oslov
("<
itie
ologie
▁municipal
▁роках
▁tedesco
获
▁вид
Fn
Make
ńskiej
ált
▁storing
cribed
▁Speed
▁осо
▁капи
▁crim
▁Herbert
▁gé
хівовано
ández
▁eval
▁Baker
[,
педи
▁}{
▁trad
▁Extern
vil
▁fish
▁Г
▁tan
▁lean
▁Kop
ἰ
wissenschaft
红
▁permut
ович
▁distingu
anny
ować
▁Bahnhof
▁alto
lia
▁Final
equiv
undes
ourses
▁Bry
Col
..
▁Abraham
▁alten
▁Um
▁capacity
▁hinaus
WriteLine
Data
ници
▁hopes
▁augusztus
▁pix
▁art
▁Paul
▁région
▁embargo
▁Василь
inst
пре
▁calculating
▁иг
ST
levant
▁increment
▁approximately
▁jaren
STR
奈
rote
▁consumer
ут
acle
▁media
▁Def
ike
ступи
▁Torre
Rule
void
▁floor
@@
▁miss
▁google
consulté
▁rue
ī
▁aren
▁поя
».
ّ
tail
uit
➖
▁weap
asto
anguage
▁Oh
▁politics
вей
▁Christopher
▁samples
abase
df
▁attacks
▁одна
▁summ
indi
▁gouvernement
<0xBB>
template
▁obvious
▁deriv
ightarrow
▁Navy
ски
▁stabil
▁evidently
▁heraus
model
ется
lick
éb
önig
person
=[
▁fatto
▁obt
▁discipl
ätte
▁inici
重
▁où
iv
▁Run
ческие
▁current
▁ehemaligen
icult
▁how
amente
cian
}}\
▁galax
▁prüfe
▁overflow
▁Nelson
▁properly
fix
j
chia
▁называ
有
▁Intent
▁Cort
ate
sef
▁others
tutorial
▁фамили
erves
▁Khan
ünstler
▁des
▁Ant
▁Entwicklung
▁Мо
▁tres
START
ел
▁François
▁Input
▁management
▁Nella
▁sid
incipal
Es
ody
Foreign
▁Cache
▁dove
▁Werk
V
est
▁assign
▁programmer
▁mult
▁IT
▁reaction
idé
▁trailing
ues
▁ye
▁demande
()).
▁slot
▁suivante
inder
сня
▁древ
Hand
▁Au
▁Plant
▁Jose
▁Vo
▁Appro
▁metadata
▁Sang
Layer
▁систе
▁trakten
▁Beit
javase
Obj
нем
abol
Ș
▁Kal
tick
▁tasks
okal
ikus
typ
termin
▁sua
тара
Mer
partition
▁punk
iei
パ
istory
▁crash
▁zá
▁satisfied
▁Schloss
▁Matrix
د
▁happening
jor
мб
▁encoded
▁И
▁Catherine
▁final
yen
▁roof
regular
apa
bil
▁lutego
rem
gra
▁Hill
▁führ
zeug
boost
▁Freund
เ
▁rejected
value
▁Н
iev
▁Vien
!.
conv
izen
che
▁nombre
▁influen
▁Rico
Warning
€
▁movie
▁diff
ope
▁Raj
▁sweet
▁Nederlandse
glise
▁Finland
▁Sister
stack
▁dy
guard
₹
▁Car
▁assuming
▁darauf
ckets
▁multiplication
▁Users
AME
they
▁restrict
ŋ
▁*/
DataSet
▁transformations
▁Meteor
▁jours
▁BTW
uur
▁Tag
itto
########
pping
▁atom
ige
Remote
ета
check
StackTrace
▁construct
▁One
bereich
usammen
enant
igen
▁Post
▁commonly
änner
intellij
▁interview
▁leta
▁circum
▁idő
แ
textt
▁grande
▁sorts
rad
▁lists
aily
▁Dur
bew
▁Verb
▁append
ros
igne
▁Wies
七
ских
áz
лла
▁suggest
▁guide
record
akter
▁фото
▁Adel
▁Süd
▁ru
▁Но
inton
anska
#
parison
wing
▁Div
▁Під
▁repeating
tikzpicture
▁című
▁behav
COL
noc
館
▁Win
Lock
Al
laimed
landa
▁mí
▁(**
owy
▁évol
Ê
éra
ур
▁генерал
Sp
del
dict
▁Сте
▁ży
Period
▁uncertainty
uk
▁convinced
▁lips
▁zoals
ění
⊆
▁jQuery
▁earth
▁rose
▁Wed
▁sust
▁constructed
▁vertices
▁simplified
▁Colombia
▁Elis
▁electro
▁gmin
▁erfolg
km
▁Editor
дах
right
▁erh
aban
▁units
Plot
picker
ノ
ос
avid
▁Пра
▁inaug
▁Nil
▁település
rico
<0xCF>
alem
vement
▁induct
▁query
isión
pick
▁balance
▁Side
asi
▁recom
Var
▁variation
remark
▁ferro
▁br
▁везе
mai
▁gén
▁чемпиона
θ
loped
▁intu
▁Tok
▁appart
▁banda
temper
▁eerst
▁second
▁Optional
essional
été
▁Rosen
▁automatic
uel
今
operatorname
gang
▁chunk
anie
▁especies
voice
▁Argent
DR
お
▁TH
▁news
▁serv
▁#####
▁aqu
▁induction
▁furent
▁networking
osition
▁lic
▁purs
ologe
crement
vr
File
“)
ague
▁tér
▁gehört
itä
slug
сь
Your
<0x68>
▁vocal
▁Entertainment
▁mass
------
▁insp
Groups
▁Seven
ț
RIG
▁Вол
erie
▁longue
▁harm
▁Tochter
parameter
intendo
世
▁Goth
▁Morris
нина
▁Indep
▁stan
zenia
ributes
ала
"
▁Release
▁mari
ово
OST
▁chance
ást
enia
maste
∫
Distance
▁Gar
▁sprite
turn
▁Spiel
▁Tit
$$
▁Cham
▁settlement
oł
Does
▁expressed
ilt
ready
▁iv
rière
conne
▁germ
Ma
▁cp
aient
ону
﻿
▁amount
ARCHAR
nection
PATH
fred
iende
▁Spring
▁cool
<'
▁Stato
jär
logs
▁titolo
▁ob
▁syntax
▁identify
▁parc
Credentials
容
▁oficial
Picker
▁Спољашње
plant
itional
OH
▁protocol
iels
ヤ
▁sad
▁statt
classes
▁traject
WebView
▁could
▁Jason
▁челов
sal
▁Person
▁slope
é
ब
线
▁Philadelphia
▁would
änd
:=
idx
compare
▁Feb
▁sex
LED
úblic
imat
▁stretch
web
▁anger
ahl
voj
▁factor
▁Brian
()`.
▁Centro
šč
▁ras
▁cele
▁Moscow
▁using
院
▁lá
▁společ
▁rand
olean
amar
▁rocks
JB
▁est
▁returning
▁Lewis
▁Australian
inae
string
lant
▁Types
utton
▁guerre
պ
▁writes
▁multiple
▁Serial
▁Hamm
▁home
aled
▁Very
imoine
▁slice
▁rejo
▁imped
▁які
ahu
▁Clay
▁па
▁storia
▁weird
auch
▁Highway
ý
ief
▁Jun
▁flowers
▁Oak
orted
ilon
▁João
textsc
▁specify
▁several
▁winning
uminate
▁Medic
わ
▁clos
▁бо
▁Publishing
▁FA
▁primeira
▁say
▁proport
cis
▁Russian
▁joining
nx
▁jest
▁Pérez
қ
Headers
▁Hof
berg
Props
▁Java
subject
▁ERR
▁Ball
▁луч
asha
lex
Front
▁Heb
▁Мексичка
п
▁nak
▁Agency
PY
ving
tto
▁Web
ishes
▁Grande
astro
reichen
EM
▁rout
▁interpol
elem
▁різ
▁esempio
iffer
zerw
六
▁Teams
▁jam
▁República
Pl
izzato
multicol
▁Medien
▁intersect
▁во
▁son
▁Lo
bs
мов
▁Grid
logic
▁monument
▁biz
icians
▁Пар
schließend
reference
▁Pon
ена
▁destroyed
▁amor
fm
▁urls
▁solemn
▁wurden
▁cam
리
だ
<0xEA>
▁Dia
▁Six
▁terms
▁bât
otlin
▁Since
pent
▁власти
▁restart
opy
stock
▁ratings
udent
Metadata
▁mobile
zing
visual
music
▁veget
▁éch
arct
▁trabaj
▁letzten
ten
igkeiten
▁Every
itation
▁Ergeb
Sim
cker
äu
▁Gem
rival
ggi
▁amb
▁zap
▁'{
altern
oss
arm
ambda
between
▁resist
bru
cgi
▁Bien
▁Па
▁система
▁reflected
▁reception
▁echo
})
▁egy
])
пису
fragment
▁representative
▁discipline
apest
▁hina
▁chair
anten
getElementById
xico
▁off
▁Zach
nick
jon
dra
token
ра
▁propre
▁care
▁os
▁fan
▁województ
wa
▁conclude
nej
▁classes
▁batal
▁collection
enci
▁polynomials
▁find
▁gegenüber
▁Ma
ological
▁blev
ems
ateien
▁Tai
ieur
vor
leans
mir
▁Ged
sklär
uw
▁составе
drop
▁était
▁trees
▁Io
allel
date
음
▁October
tid
чки
▁extraordinary
▁sobre
▁ré
кам
графи
▁sup
រ
Con
▁At
cket
тре
▁cole
▁localidad
odio
rons
imp
▁produit
▁referred
▁Temple
▁RewriteRule
▁define
embros
▁substring
▁Michel
▁rin
AC
&\
▁Lor
▁követ
intern
icode
erni
omini
än
▁vida
▁alte
▁ро
ptic
▁referencing
▁anten
▁Lyon
▁depth
▁stim
Т
ől
Lambda
▁estudio
vec
보
ا
dev
▁Price
▁ј
▁fr
▁ї
tał
leg
▁naj
▁preferred
èces
▁I
▁Barb
▁Shakespe
▁ho
inks
orb
iec
▁notify
gebras
▁à
sch
ω
▁quasi
▁density
▁chante
laces
aupt
riter
▁state
▁Graf
園
▁Places
▁verk
atte
▁improv
versions
aes
math
▁Кра
aggreg
¹
made
mapping
dan
▁algebraic
лимпи
м
tegr
setminus
ático
ine
dw
▁tid
▁mos
▁través
▁brick
скую
▁voj
▁roku
▁pointers
aron
▁como
лии
▁Население
▁///
▁snippet
▁awk
aset
▁skulle
Fill
人
▁tends
월
▁Ing
▁Mas
help
▁externos
кін
▁your
frastr
▁Kreis
▁therefore
▁logged
▁guerra
▁country
ropri
Simple
▁войны
ond
▁exists
▁Email
▁Although
minipage
密
ension
Syntax
▁algunas
▁bodies
▁Сове
▁imm
▁missed
док
essel
▁Race
ogonal
▁fs
rollers
▁";
ücken
▁fins
▁ci
ченко
kol
strap
▁Ü
み
▁personne
agog
age
▁san
▁paused
]
▁Berlin
Hy
▁dann
▁realized
▁Layout
ĝ
▁infatti
kar
▁encoding
бар
alog
jahr
▁selects
À
%;
counter
▁attack
▁exhaust
<0xC9>
▁cases
▁Tournament
▁cat
▁Lad
▁broken
▁Biografia
貴
▁process
coll
▁While
▁resp
▁wrapped
▁guaranteed
β
sql
Container
ege
ネ
ád
▁fiddle
его
oth
}/
▁Your
▁"'
rés
allowed
▁Aust
▁Water
▁akt
ellers
HP
▁Cap
▁(@
▁devices
▁Stadt
▁whitespace
